/**
  ******************************************************************************
  * @file    har_data_params.c
  * @author  AST Embedded Analytics Research Platform
  * @date    Thu Apr 11 00:35:03 2024
  * @brief   AI Tool Automatic Code Generator for Embedded NN computing
  ******************************************************************************
  * Copyright (c) 2024 STMicroelectronics.
  * All rights reserved.
  *
  * This software is licensed under terms that can be found in the LICENSE file
  * in the root directory of this software component.
  * If no LICENSE file comes with this software, it is provided AS-IS.
  ******************************************************************************
  */

#include "har_data_params.h"


/**  Activations Section  ****************************************************/
ai_handle g_har_activations_table[1 + 2] = {
  AI_HANDLE_PTR(AI_MAGIC_MARKER),
  AI_HANDLE_PTR(NULL),
  AI_HANDLE_PTR(AI_MAGIC_MARKER),
};




/**  Weights Section  ********************************************************/
AI_ALIGNED(32)
const ai_u64 s_har_weights_array_u64[6038] = {
  0x3df90096bca348a8U, 0xbd9ed7b6bd9da270U, 0xbd85462c3e22d558U, 0xbd787fa1bdb4b7f5U,
  0x3d5c19b0bd8ee3cfU, 0xbf622668bf1ab011U, 0xbf144177bd6800cbU, 0xbf111fbabe64e8abU,
  0x3d8c81003c1b5fc5U, 0xbf18b84dbf1c8444U, 0xbea957c73d0d7f86U, 0xbed61caebe396620U,
  0x3db9814bbd710946U, 0xbf2429e2be95ce15U, 0xbec312a33ca0c21fU, 0xbec13a0cbe804755U,
  0x3bc0bf953d61fb77U, 0xbefb2092be54ef65U, 0xbed1c9f83d892e88U, 0xbf1f39cbbdaf14c9U,
  0xbdb3a7a93e14be8dU, 0xbf133a00be3bbd0aU, 0xbe35c7673e2586eeU, 0xbef39fe9be135ef2U,
  0xbdd78d99bd65ac4bU, 0xbf063f8cbefa3f69U, 0xbedff1173d7c49bdU, 0xbf0ffb18bd412a87U,
  0xbd10d151bdadcb9fU, 0xbee9b422be97d0eeU, 0xbec8e3633d1072d3U, 0xbeda76a4bdc4d32fU,
  0xbbb65dcd3e40c9d9U, 0xbef38483be558da7U, 0xbf01fd093d8a8077U, 0xbf0858efbd3de787U,
  0xbdba12713e0ff6a8U, 0xbe942df7be53d836U, 0xbf3d3c7a3dcb4119U, 0xbf4de9483cd9f344U,
  0x3cbd905dbdcd2292U, 0xbec3cfc9be8319baU, 0xbf1dd087bb5d1769U, 0xbf2e59f2bde5ea65U,
  0xbe0566c83e0063deU, 0xbeee52c7bf0ec19aU, 0xbed21dc13d883d37U, 0xbf3ae3abbd2980edU,
  0xbd843551be13a3efU, 0xbee4d2b2bea77105U, 0xbec217283e23d620U, 0xbf1b872cbdc628bfU,
  0x3e10f102bd9168edU, 0xbf02003fbeb88998U, 0xbeab5a6c3d5c897dU, 0xbf0dabbebd6dfcc2U,
  0x3dd92b53bd3eb7ffU, 0xbefe9bb6bee780fcU, 0xbebcaf923dda7170U, 0xbf45813bbe34eb33U,
  0xba1a1dbbbdc9ce54U, 0xbf3250cabeb7983dU, 0xbea9d03e3adceb2aU, 0xbecc9b6cbcf3319eU,
  0xbd6f31633ad41b99U, 0xbf16597fbf011061U, 0xbf146f033c367e39U, 0xbec708eabde65a5cU,
  0xbe0266003dcfc48fU, 0xbf072248be54877aU, 0xbf1329c83e0e0bdfU, 0xbf14659d3d8595aeU,
  0xbc599e71bd18d0bdU, 0xbe614788be890a2eU, 0xbf0609463e01ca3aU, 0xbef6f9943dcc518bU,
  0x3ddeaaaebd48eb98U, 0xbe98f449bed7b030U, 0xbe930f063da96c05U, 0xbf0eae35bd89234eU,
  0xbcf103c1bdc1ef75U, 0xbea62851be528a7aU, 0xbf44e4183dff3927U, 0xbf0454f2bdebe7ceU,
  0x3d3e55493d845032U, 0xbf0f5a3abe12887eU, 0xbf28da393e12f42eU, 0xbf33b358bd09d22bU,
  0x3e154d43bdfd01b1U, 0xbe8bc1b8beaaffa5U, 0xbf5bfded3c0511d8U, 0xbf29fd22bd701df1U,
  0x3c9b1607bd97887bU, 0xbf24307ebe9fe8f0U, 0xbf0331d43dc1386aU, 0xbee2b762bd97fda0U,
  0xbca9bd213d14434cU, 0xbf2600e4bebfda66U, 0xbeb74528bd90efc3U, 0xbe421bbfbd69fe19U,
  0xbe0caad63dbdb628U, 0xbf0b7b39beb11225U, 0xbe88ced13e0b32e2U, 0xbeb561dfbe74b2a6U,
  0x3dc18c48bde4fab7U, 0xbf03dde8be8a499cU, 0xbf0e99f53debb5efU, 0xbec70eb7b99cc396U,
  0x3c34064d3d4abbf0U, 0xbeaa7b6dbe49ba07U, 0xbeafe0473da3c5d8U, 0xbe78b6b13d0f9a27U,
  0x3db0bc72bdafadddU, 0xbefb5039befd8451U, 0xbe38d8183e16b773U, 0xbedddd6fbd8a14ceU,
  0xbe254e493d184aa6U, 0xbeee15e1be758e44U, 0xbeeb8959bd9b291fU, 0xbed5411d3daccf0aU,
  0xbd39a4ec3cd4a45cU, 0xbecd2c9abdde62e0U, 0xbee0da3c3e2111edU, 0xbe7f2fdbbdf39c4eU,
  0x3de4eedfbdae25d9U, 0xbef2a7f0be2492daU, 0xbf0b6a7bbd1b7008U, 0xbf22595dbdd4a5a7U,
  0x3e0002423d0863e6U, 0xbe9d98e3bec78356U, 0xbf18edf43dfc1356U, 0xbf1f68383d245dbcU,
  0x3d6bf1fbbda55f37U, 0xbef182a4bee8d6c8U, 0xbf0005073da12587U, 0xbf16ee49bd53ee89U,
  0xbd93968cbd9369e7U, 0xbef4b9dbbf09c774U, 0xbeedf323bcc9353aU, 0xbebc10d0bdc65ee0U,
  0xbc8373ae3e071c5cU, 0xbf21a36cbecfde9bU, 0xbea03bc63dd252c5U, 0xbed18580be911b82U,
  0x3d8617513d640c2dU, 0xbed00516bf120f66U, 0xbf05339b3d8342c1U, 0xbf1e94a639da23ffU,
  0x3da175333d3031d5U, 0xbf0e36d6bf0af58bU, 0xbebfe611bcecdc84U, 0xbec00ed1be68780dU,
  0x3e18ea543d05fcb2U, 0xbf2b2c0dbebea6d2U, 0xbed201443bccb915U, 0xbead6fdbbd8bce1dU,
  0xbdd382a23e357a3cU, 0xbed56497be63d306U, 0xbeb95ac73e16cb75U, 0xbeee157cbcec905bU,
  0xbd125b833b900d63U, 0xbec27e14bdc3951dU, 0xbefdfd98bd068fd4U, 0xbeaa7c08bd6596f1U,
  0x3d96b3263b984ea6U, 0xbeb17415bec432dbU, 0xbeb0c4333dadbf9bU, 0xbf123a573d770457U,
  0xbd64374c3d740631U, 0xbeb53f08be6c13eeU, 0xbee621c23dbf9799U, 0xbef2760cbad2e070U,
  0x3c3cd5d63e481705U, 0xbede2a903d0864dcU, 0xbf07e8213cac4330U, 0xbf0e52c5be29bcc0U,
  0x3cf178d2bdcfc9cdU, 0xbebf2194bd0afe4eU, 0xbf1443033e2a4fd0U, 0xbf44475dbe758de8U,
  0xbdac2e63be58abc5U, 0xbf24c446bf0947beU, 0xbeb0f1133e193112U, 0xbea0f79dbddbed3bU,
  0x3d117f703bf39decU, 0xbf2eecedbec28aaaU, 0xbea0843dbd75fe85U, 0xbeda5e75be51869cU,
  0x3d5bbd30bdbdd253U, 0xbefccc83bf16d5faU, 0xbf00f03bbce89bb1U, 0xbeea08b7bdd28074U,
  0x3de96342bd9872a7U, 0xbf1e203dbed9018bU, 0xbec14ab93db42339U, 0xbec3d114bdf13d26U,
  0xbd1c6483bd50aff4U, 0xbecf59cebe7e59c9U, 0xbe959a3b3e271a9eU, 0xbeb81182bdb372a3U,
  0xbdad24c83d8d52d2U, 0xbf0d7e8cbec02eb4U, 0xbe336503bca2af90U, 0xbecdf3e5b9953c3fU,
  0xbd1ed3f3bd848db6U, 0xbe3926babe4fdcefU, 0xbea9f22d3ddf3b85U, 0xbe8ed78fbdf12d0aU,
  0xbdc64cf2bda8787eU, 0xbe87ddc4be6b40e7U, 0xbe995f553b5196b8U, 0xbe87a0cebdc38d5eU,
  0xbc4d6a8d3e09a6adU, 0xbedeb906be6f69cbU, 0xbf3b99453df88cdbU, 0xbf3c7c6c3d863fc6U,
  0x3da840143d20c462U, 0xbef286f0bee6ca8cU, 0xbf1b462a3db8d2ebU, 0xbf2925bebda9b950U,
  0x3e150b19bdcb89ffU, 0xbeaa9971bf178646U, 0xbef423fcbd557eedU, 0xbef448f1be5bc63aU,
  0x3e2639843de7bec0U, 0xbebd78cebead2416U, 0xbea2c60e3e106777U, 0xbf06744fbe97e695U,
  0x3e1885a73dfcfc24U, 0xbf1f88b2be9ee538U, 0xbf228b573d251ca6U, 0xbf34decebe65c181U,
  0xbc928e273d367b65U, 0xbf0f150dbef869ccU, 0xbeb86e6b3dd28c0eU, 0xbf0f9c6abe3456d8U,
  0x3c0a43963c9eb2c6U, 0xbf0937b1be9df044U, 0xbeb435d23d1c43c4U, 0xbecbfb0dbb9ce089U,
  0xbcdecc123e471bb0U, 0xbeea7bb3bf04ccfcU, 0xbede167a3d53d284U, 0xbef2e750bd63d8d6U,
  0x3cc41ab73e45da7cU, 0xbeb6e524bda51186U, 0xbf0601903d2f0ab0U, 0xbecbf6afbdd06654U,
  0x3dcbd39e3d909007U, 0xbed1b088bd67e867U, 0xbef008153e114d94U, 0xbeb0d44e3c23079cU,
  0xbd25dbda3e533230U, 0xbf18b9f4beab0c0eU, 0xbe9a35a8bd143644U, 0xbeff143ebd88b2a6U,
  0x3d0a0bebbda84e6bU, 0xbe95fd6fbe47440dU, 0xbf1c52263d06e2a3U, 0xbf10aa4e3c86a218U,
  0x3d6ca57c3e501d69U, 0xbe95cbb63dad3d36U, 0xbf0c9ffcbb05397dU, 0xbed23a053dbce3a6U,
  0xbdd2d5adbd8a3cebU, 0xbea6f682bec5ad3cU, 0xbf5cc66c3d7ea1e6U, 0xbf0fc4b6be60103fU,
  0x3dcfe51cbdd3f57eU, 0xbf3ec03fbe9859c4U, 0xbe5aed443dbbb90aU, 0xbe803956bdb18785U,
  0x3e31a5a7bde8f7c4U, 0xbeb8def3bed74286U, 0xbea156803d97f88aU, 0xbdf48ffe38e2a608U,
  0x3d762285bcbcb8deU, 0xbf034a91be881922U, 0xbe85defbbd99f0deU, 0xbd7d5d92bdc8e31cU,
  0x3e4d13703dcfa041U, 0xbedd5690beb3382bU, 0xbe602a5e3e2544e1U, 0xbeb97e25bc9cc713U,
  0x3d3a8285bd037ee9U, 0xbeb5edfc3cbdd014U, 0xbe168be13de00a48U, 0xbe5e9e3f3c93cd96U,
  0x3cd62922bdbbd263U, 0xbe29db59bdc980afU, 0xbe0223a13e32fcefU, 0xbec637053dee13f0U,
  0x3c790e67bda74333U, 0xbe1adedcbd7b470aU, 0xbe6ef6223e56f064U, 0xbec88bf3bc746b2dU,
  0x3e43d8ef3e15686cU, 0xbdf2024ebd20b12bU, 0xbea5c2e53d2937b9U, 0xbe3d58f1bda6c661U,
  0x3e170ac4bcba7c9bU, 0xbe9e7029be93ed6bU, 0xbf23cfa63d79ecf9U, 0xbed9e2a73d2e152dU,
  0x3dacbc19be663b0aU, 0xbdac3d3cbe0afc34U, 0xbf23f7ed3bcd7762U, 0xbf04c6d0bc1dace7U,
  0x3e41db8c3cc8c312U, 0xbe1445e5bea7ce05U, 0xbebc5d453d911fb5U, 0xbe9634babdcef61eU,
  0x3d020f12bbfb371dU, 0xbed0aa3fbe24fc38U, 0xbe8a811cbc93d80bU, 0xbd9884eb3d97fcffU,
  0x3e23023cbd18385fU, 0xbedb7ccebe4ac590U, 0xbe24300f3d55a6eaU, 0xbe8b6c8ebd9f664fU,
  0x3db92229be1fe384U, 0xbee254e9be37d988U, 0xbe0a2da73e077331U, 0xbeff631abdc90571U,
  0x3e67176dbe38ad05U, 0xbf02c102be8204adU, 0xbeb603d9bd78ea45U, 0xbe9546e3bddad066U,
  0x3d15f7f63d5b21e6U, 0xbedea95dbe32a138U, 0xbe80f480bceaab5aU, 0xbea5afa9bd8851d1U,
  0x3dac8f6cbdc9dea3U, 0xbe1a76abbe6174adU, 0xbe1f34a33cf5acb9U, 0xbe29c09fbc50efd7U,
  0x3e20a78dbd7a0303U, 0xbe582b59bdfeebc7U, 0xbea7782b3b7b79aeU, 0xbec12f863e0b3825U,
  0x3e2065f3bdb1ed89U, 0xbe76bb1ebd0c3133U, 0xbea7f97ebba48868U, 0xbea4ed4bbda201ecU,
  0x3c0178ad3d047bb4U, 0xbe3a88fd3b9620dcU, 0xbedc97e03de9ecceU, 0xbe985a063e191686U,
  0xbd2a547dbdf560c3U, 0xbeaa4fc1be012147U, 0xbf0477f1bd180bb7U, 0xbea1ab88be088400U,
  0x3e49bc15be493a69U, 0xbe951171be609758U, 0xbf3ac46a3e2a1107U, 0xbf2e958dbdb9fdfbU,
  0xbd2dbabfbd4ade29U, 0x3e58e0473de7220cU, 0x3d87b8dbbe352ae1U, 0x3e23ab153d3cd209U,
  0xbe5f7b12bdd0f44fU, 0x3e7a24443e11773cU, 0x3de5ccf9bdf1692fU, 0xbd78e5b73d1ebc0dU,
  0xbd329c06bd43cc9eU, 0x3de6aea4bd116cd5U, 0x3e319f72be7c796dU, 0x3e425dfe3d441dd2U,
  0xbae3289b3dc7ca27U, 0x3e4458633dd33455U, 0x3cf9c93f3cc97f19U, 0x3e4a66f33d5c2f39U,
  0xbcc39a12bdb30de6U, 0x3d49988e3e6ab368U, 0x3df0a710be3e246dU, 0x3d9c602b3dcabad5U,
  0xbe8cc232bda14519U, 0x3df1cfd33d33001eU, 0x3dbfea0bbe675882U, 0x3e646e0d3e703d38U,
  0xbe5cd0d2bd4e8a5dU, 0x3e1d813c3d5d9a50U, 0x3d7e926cbc44a2c7U, 0x3de186c73cdb4138U,
  0xbe4ffe24b9163b63U, 0x3e6986703dda2ad3U, 0x3d71b203beac31c5U, 0x3e73482c3c9756a2U,
  0xbe297b8abda82781U, 0x3e7b99993d402779U, 0x3d8a52e8be531c08U, 0x3de477a93e58b26bU,
  0xbded73b7bb83e0b6U, 0xbc4cfd7d3e738662U, 0x3d7dcdfcbe1229e8U, 0xbce719d43d299e84U,
  0xbe336bccbe755103U, 0x3defe9b93c8ec70bU, 0x3e2951c4bd0dfb21U, 0x3e5a2344bc8298edU,
  0xbe5413f3be29d9b4U, 0x3d162f6a3ded5ef0U, 0x3d9bc2f4be4d0ea6U, 0x3d8498d1bd9c2991U,
  0xbced40253d760c71U, 0x3e8ba5403dda9624U, 0x3e43065dbe586b12U, 0x3e7d85f83c2fe633U,
  0xbde0dda33ce8fed8U, 0x3e505eb13e307edbU, 0xbc891fccbdd8dbc7U, 0x3d27eeec3d61e6a5U,
  0xbc76ab2ebe0d9e6bU, 0x3e3431543e21672cU, 0x3ea58bc7be60ce6bU, 0x3da93dcf3dc41f26U,
  0xbe34fedbbdbaeddaU, 0x3d3543693dd11be0U, 0x3e5ca5a9be4917ccU, 0x3d474cd23d341080U,
  0xbe85fe54be002308U, 0x3e3dfefd3cd9e11aU, 0x3d62b774be03f043U, 0x3e5b7362bc85599cU,
  0xbe5c5736be20dbacU, 0x3e1bda7e3de8fe8eU, 0xbcd245e2be6b850bU, 0x3dfad7cb3e344a07U,
  0xbe3c88b33d7f24b7U, 0xba973d513df83132U, 0x3dc032c9be6641ecU, 0x3db91e393e38d812U,
  0xbe875e593ddb37beU, 0x3d6b6cb73e4395b4U, 0x3e577e0bbe27ad7eU, 0x3e7921e23da1da73U,
  0x3afbf956bda39797U, 0x3e1d2eecbd1a887aU, 0x3cb78757bd06ff9fU, 0x3e7ea6d9bc9d9233U,
  0xbde332e03c6a1f1cU, 0x3e1cc2353d4b6bdaU, 0x3dd5b3febd16a354U, 0x3d4b34813da755aaU,
  0x3e0520c63d6c2712U, 0xbd6b92e7bd0772e8U, 0xbc994be73eb9d8ccU, 0x3c034566bd5d6f28U,
  0x3de11b463df10b34U, 0xbcce2d583c09b454U, 0x3a9aec393e5ce8eaU, 0x3cdf64543d07bd27U,
  0x3d6665c93e15f62aU, 0xbda0e9aebd6a3e21U, 0xbdb157c63e28ccb7U, 0x3e1965133e183cf4U,
  0x3d84e8053e15206aU, 0x3d28fa7bbd9798c2U, 0x3d5e9b683e34d0fcU, 0xbc84d1e43e2e9990U,
  0x3e8aa3e53d4cf0c1U, 0xbdb5f0443dfc0eb3U, 0xbc27af6a3eb16bdbU, 0xbd0dafeabda82613U,
  0x3e9957ff3d916743U, 0xbc42c7acbcc034a2U, 0xbdf285683e77c602U, 0xbdb02bf93beb4db8U,
  0x3e9dc1233dc13083U, 0xbdf2c3753da72abbU, 0x3c7b3d253e767053U, 0xbe1235853d9b1881U,
  0x3e1ab1c73e27daf9U, 0x3da131143d1d3148U, 0xbe216f753e5c9beaU, 0xbe281aa4bd00e7b8U,
  0x3e2fc2eb3e878951U, 0xbb8ad8063b83f93fU, 0xbd90c28e3e3cb8beU, 0xbd575cdabcbabb44U,
  0x3e4a372a3e195e30U, 0x3dab1463bd8cd2c7U, 0xbe5fb58e3ea79384U, 0xbd9541753d55219aU,
  0x3e4f9a033e90d448U, 0x3dd9f2e33e0d2e97U, 0x3d73ffd63e82a67dU, 0xbaaec7253d23de78U,
  0x3e0776ef3e6c1c40U, 0xbbd897bb3c9a1ed7U, 0xbc7e8bc43dfe149cU, 0xbb587b263e030b53U,
  0x3e064e1c3cf8e882U, 0xbdb6c4393d31dfabU, 0x3c2491103ea033d9U, 0xbd7187b83df5fdbfU,
  0x3dc2f9d63e046a4dU, 0xbd20f9163b71286fU, 0x3d9d7da43e6d5b49U, 0xbe2e794abca3f977U,
  0x3e11f7613e3bf3b3U, 0x3db64519bdf4890dU, 0x3b78a18e3e07d7dfU, 0x3d24a6dbbdc5c969U,
  0x3d894de43e00c48eU, 0x3ce9f7e03d570d70U, 0xbc48aada3d3f770fU, 0x3e13fbe7bbd6fb2bU,
  0x3e868ab33e3864c5U, 0xbd5ec4f9bd1cc11eU, 0x3d47063b3e815d7bU, 0xbdb7db033deaad5fU,
  0x3e9008883d8d7013U, 0xbd9f1d92bbdd3968U, 0x3caa32573e7b2979U, 0xbd9abcb33bbf1e37U,
  0x3dc6c1923dafb75fU, 0x3d41e7203dd9b6e4U, 0x3d4dee463d92f589U, 0xbe01e5fb3d250064U,
  0x3e8e806e3e49350eU, 0x3d5077773c80133eU, 0x3c9fb1d73dfad2f6U, 0xbce168f33e264d27U,
  0x3e88f1d13e22d626U, 0xbdcc7318bb8fb573U, 0xbdbbfdfe3e85369eU, 0xbdc0670d3d9c13d7U,
  0x3e5c91af3e21a4dfU, 0xbcc009a5be6fd7b3U, 0x3cad6dc63e5fa27fU, 0xbe1d65cfbe7cf7daU,
  0x3e13a9cabcb3d8e7U, 0xbf52ba3fbedcd93eU, 0xbe9bb6bc3e2f6155U, 0xbec99344be8220a0U,
  0xbd42312c3e021936U, 0xbee45cf3bebe3847U, 0xbe28c2a43d7fa776U, 0xbeb6dfb3be69768fU,
  0xbd870edebe0022a6U, 0xbf151df6be64b533U, 0xbe95a9f0bdcceccdU, 0xbeaeb6babe7d9b86U,
  0x3e35fe1cbe540d73U, 0xbf2d2d4fbdf4b00eU, 0xbe9522343cfd65ffU, 0xbee1088dbb3edcbeU,
  0x3e0145de3ddd466cU, 0xbf06ce71be4ea69aU, 0xbec873cfbdd77c84U, 0xbef29facbd82eae9U,
  0x3d27833dbc6d379eU, 0xbea4a736be449647U, 0xbe6c03b1bdc1678bU, 0xbebc91483d9b7947U,
  0x3d3ff652bd968fd7U, 0xbe76c96bbebe51d4U, 0xbe9f6959bdecc77dU, 0xbf02d993bdc1b69dU,
  0x3df098c5bd8ffee0U, 0xbe78e8c0bdcb604eU, 0xbec780b13cfdd983U, 0xbea1d73a3ce22c24U,
  0x3e193b24bc002a15U, 0xbe9b9a3cbe601ee4U, 0xbf009ac0bd3db297U, 0xbec105913d47a02fU,
  0x3e16ed2bbd915f8dU, 0xbe4788a8be7a3c44U, 0xbedd37b53da7c404U, 0xbf44e2023d3da6c1U,
  0xbde427d8bd1e5877U, 0xbea2bc9bbe6f835aU, 0xbef46b373e12c458U, 0xbe8dcd8abe0a9ec3U,
  0x3d6cf168bd9d5de0U, 0xbf18bcbfbe80fec0U, 0xbdef24aabd7f5ea5U, 0xbeec62a7be42e8afU,
  0x3d86c03abdcaabbaU, 0xbef79f1fbedfa687U, 0xbe9b0e4b3d41f8afU, 0xbe952809bca40e08U,
  0x3cc080233c08f260U, 0xbf1b8928beeb7c15U, 0xbed7d3acbd6ec34eU, 0xbf05be243d1ffbc5U,
  0x3dfa3b05be4425f4U, 0xbeed22e0bea1cf07U, 0xbee834dbbc21efd4U, 0xbea5ff0e3cb0839aU,
  0xbcc82c263b620fd4U, 0xbef7dcf9be6a0758U, 0xbee2b67cbd0b33beU, 0xbec3e6bbbd3d996eU,
  0xbd13a5e93d6aaed3U, 0xbe51e7eebe3c8628U, 0xbf0284743d8ca1a4U, 0xbeab7971be1592abU,
  0x3dcba31c3dc90fcdU, 0xbe4bb251be192ddfU, 0xbe5814483d39f3c5U, 0xbea3a4463ca7452fU,
  0x3e07f7acbc055fb0U, 0xbedf719abe8afab5U, 0xbe1628253e1bbe29U, 0xbf1de1fdbd46c135U,
  0x3d4187503d133767U, 0xbe87d9acbdb75630U, 0xbeb5e50dbbe415a3U, 0xbf00ebdbbd025127U,
  0x3e09e08b3df9937bU, 0xbe8887503e2cd575U, 0xbef6149d3dacc11dU, 0xbe9ce513bd49847fU,
  0x3de88290bdbc9590U, 0xbe34a1803c09947dU, 0xbf4e2278bd5f8448U, 0xbf2e54afbd219da4U,
  0x3c8a93aa3d8e9740U, 0x3e32c94d3e1553b5U, 0x3c78f1943d9a178aU, 0x3e4eff40bdd7a61bU,
  0x3d5e935f3e5698a4U, 0x3e2d66533db60308U, 0xbde580763e68f367U, 0xbccaaa743e2ccfbcU,
  0x3e44622cbc855b8dU, 0x3e6157193db3ac9eU, 0x3d2af1eb3dfc9167U, 0xbc9b7b16bdc77355U,
  0x3d942be83e2a8177U, 0x3deef6503d6b77bdU, 0x3e1b8daf3cb28cc8U, 0xbc8e62f73dd26366U,
  0xbd5d9e5c3dbfa917U, 0xbcca27c03aca391eU, 0x3d86bc12bc54dc3bU, 0x3cbb73553dd52220U,
  0x3dac43df3cf65f2dU, 0xbd6a712abb55cc0bU, 0x3d8bc372bce4453fU, 0x3e06697dbd9253e5U,
  0x3da8675ebda83100U, 0x3d6e5f253e318f19U, 0xbe02acf23e2a2dffU, 0xbd20de31bccefa82U,
  0xbb9f4772bd3d9168U, 0x3d62439c3d8efd00U, 0x3e0d588cbc42f97aU, 0xbd8af1f8bb444eeaU,
  0xbd944f293dd22476U, 0xba8211abbdb0f8f0U, 0x3e79d4b53e1d8c6cU, 0x3dc99a4c3d91f191U,
  0xbda38baa3e3a7e71U, 0x3e024e6a3e4b538aU, 0x3e12c1d53e4a4a6aU, 0x3e59d1983deb1bc0U,
  0xbc775ae03e625d88U, 0x3e5217ec3e0f7a3aU, 0x3bfaa1153c9ed242U, 0x3e4514093d241696U,
  0x3d989ee93e009261U, 0xbc469ec33e3dc4dfU, 0x3d4e77aa3e1a47e7U, 0x3d09bbd63d777615U,
  0xbd2d57983e31d24eU, 0x3e87ba25bcac5de7U, 0x3deca7c73df77b87U, 0x3dab4a3fbcf934d7U,
  0x3dcad3c73d34d1c3U, 0x3c1d96013db7ab9eU, 0x3d40cb543e0d2e15U, 0x3e3cea673c73dc54U,
  0x3de4c4f03e7a928dU, 0x3d98ec20bcb24a6fU, 0x3d7757f2bbdbad76U, 0x3d9e1817bd979ecdU,
  0x3dae6b033d0ac712U, 0x3dd65a593d89f0f6U, 0x3d64994f3e706e1fU, 0xbc506f4bbc4b7120U,
  0x3e3122c63de9ca92U, 0x3bedff893e25b3e0U, 0x3e03493b3d7e63f5U, 0x3dac5123bdec2c61U,
  0x3b68463c3e25e469U, 0x3e10a1ea3e0b268bU, 0x3df797c33e87c4f2U, 0x3e2116fb3d85b70eU,
  0x3cc81ca53e3964d4U, 0x3ca0f152bd29d044U, 0x3e0b575d3e544552U, 0x3d8b995c3c948d1eU,
  0x3d12f4b93e1a5767U, 0x3c37f9b93d7c00f9U, 0xbc34c2b33d2f321bU, 0x3e6160d53e08760cU,
  0xbda738633bb8f766U, 0xbce45056be3a3c68U, 0x3e18a50cbd18789eU, 0x3e089b033de66562U,
  0x3e28f6a13e8eca1aU, 0xbace5ae1bcbecc0fU, 0x3e4395583e3abfe4U, 0x3d90ecdb3dad607aU,
  0xbdb9debb3e4d7984U, 0x3f139c043ed92789U, 0x3e71944e3e11d2abU, 0x3e6c40d23e409da9U,
  0x3ce3f8a63e147d0fU, 0x3ecdefe33e83d1f3U, 0x3e089d7a3e0abea2U, 0xbd7b758b3e4598a6U,
  0x3d57fa1e3e338177U, 0x3e8ac6813e8a2fd0U, 0x3ea3edea3d841d1bU, 0x3db8095d3d88e47aU,
  0x3e102a0d3e06edb7U, 0x3e8132ef3c084267U, 0x3de97d853dc8a319U, 0x3e26aae53dbb95b1U,
  0x3dc119013cca177eU, 0x3e4368973e6ec2b4U, 0x3d3ba7a8bcdc38f0U, 0x3df5faeabc470734U,
  0x3d5b2c313df97a84U, 0x3dece0c43e31a476U, 0x3e9931993c02c5b9U, 0x3eaca4953dd9ffafU,
  0xbd624a5f3de42282U, 0x3eb728ff3e92755fU, 0x3d8d11d33d9f0f81U, 0x3eaa5ca73d175e44U,
  0x3cbb3d843d82670dU, 0x3db7d5fd3dc9d43fU, 0x3eb31ad03cc017e5U, 0x3e88f3b1bce46f78U,
  0xbcf523153db714fcU, 0x3e2d9a8e3e79a76dU, 0x3f16a6413dc42443U, 0x3eedd1283e0da9e6U,
  0xbcd9e6c93e6b3db3U, 0x3e9ce7593e86138dU, 0x3ee85c783db6eaf2U, 0x3f18063d3d828d3fU,
  0xb99ca0ac3c9ebd90U, 0x3e61210f3e817842U, 0x3e9ec2b93d32c8efU, 0x3e5052c53ea98341U,
  0x3d0150183d65d7b7U, 0x3ef4fd4d3cca2a94U, 0x3e26be58bcf3fe2bU, 0x3e9565b23e910d04U,
  0x3c7e54933e8c49c1U, 0x3ecc4c4d3eb50295U, 0x3d4a02273c6c15c8U, 0x3da6c3ec3e0cbf01U,
  0xbbcb2c313e2b3127U, 0x3f0589fc3e66b640U, 0x3c3a8a733cdb7f13U, 0x3ecce6a33da25ba7U,
  0x3d9669ecbc44169eU, 0x3e969e393e9c64cbU, 0x3eba15adbc218624U, 0x3e93e2143e807502U,
  0x3d8ff6eb3cdf7945U, 0x3ef9d8d13dbbf3e1U, 0x3eba76303e2f9350U, 0x3dc801323d739923U,
  0x3e0eed42bdc429b9U, 0x3de7e2bb3e68d871U, 0x3ebf733d3d9c2378U, 0x3d70331cbd939c16U,
  0x3cc2b3963e3ff9a8U, 0x3d44adc23e784af9U, 0x3e98f3723d8d8b35U, 0x3ebe5d16bdd31f2dU,
  0x3e0b0c9fbe0da36bU, 0x3e081ea83d166b8fU, 0x3e94b5bebd567d61U, 0x3e4357ddbd8b0435U,
  0xbaee1f903e0293a5U, 0x3ea07263bce7b31eU, 0x3e5f1f30bd7847c0U, 0x3f1293893e51bdb7U,
  0x3e05d34b3d8881d6U, 0x3e6b72203e0e76f4U, 0x3f1745c03d1b81b5U, 0x3f00615a3e35090eU,
  0xbcdf2eebbd6f5811U, 0x3e2080a73ea1ba06U, 0x3f37035a3b420552U, 0x3f3a86083e6dc03dU,
  0x3df210c03dd5fb7cU, 0xbd09b1313e19c9f0U, 0x3d9c5b973d601852U, 0xbc6aee873dcfc975U,
  0x3d6b52da3e18ba9aU, 0x3d391c563e464193U, 0xbe0c27ad3caf67ddU, 0x3c177ae0bc8f3beeU,
  0x3abc9bc83c8814d7U, 0xbb597b863dd76182U, 0x3e5a457f3d309f77U, 0x3e6195e13e00110aU,
  0xbdb6d13c3e833b99U, 0x3e365127bcec304bU, 0x3d175dd33c1594deU, 0xbc0e231a3dd47c5aU,
  0x3b07e4d73e50f28fU, 0x3e09d7ab3e273a9fU, 0x3daa5c633e35db3cU, 0x3dc647d73dea9ef2U,
  0x3e25940e3e1c08e7U, 0x3d73529f3e1b9bbeU, 0x3dda279e3e4ef5fcU, 0x3d6f925a3d6f11c6U,
  0xbdb422dcbc1c852eU, 0xba9a0395bd0ebe5eU, 0xbd1c605f3e1a08f4U, 0x3c1219fcbdf85155U,
  0x3c81fbc33db3305aU, 0x3e4b0db0bd9290daU, 0x3c8d60ca3db6eafbU, 0xbda54fcc3c10e250U,
  0x3df5855f3ddd406bU, 0xbd6318a83e18f939U, 0x3e40e5d53d3ae9cfU, 0x3e06e8eebda2cf50U,
  0x3ce3d90d3e9c97e3U, 0x3e4313273c8cbddcU, 0x3d7112343e0e4defU, 0x3d7505403c6701b5U,
  0x3dc138143e678835U, 0x3cbfb9203e67545aU, 0xbd498a5b3e28e60fU, 0x3e0c7ebe3e1397ffU,
  0x3dd416133e0c45b0U, 0x3c6ccc80bda07f8eU, 0x3e1f82693dd623aaU, 0x3d41814b3e44c22cU,
  0x3dc414143e8e553bU, 0x3de8f9f73cc10490U, 0xbd61bb683e61d88eU, 0xbd6cd7e5bd905bd8U,
  0x3d983ea43e2a08ecU, 0x3df1d3ea3db581a9U, 0xbd8667cd3e2f4e3aU, 0x3c93fd08bd70528dU,
  0x3e03d7ae3d6e7646U, 0x3e49b0343e3b1139U, 0xbdac3ea03e5927aaU, 0x3d91b6efbc9ee1cfU,
  0x3df204163e445736U, 0x3e21856dbd7bd0faU, 0xbce6cd783cb9b6d7U, 0x3e5e3c13be1392ddU,
  0x3dd7573e3e29704bU, 0x3cceb77b3e16aaa3U, 0xbdeb24f53dec3f54U, 0xbafc31ed3c766ebeU,
  0x3dde8c4a3e2984cdU, 0xbd98c35c3d763046U, 0x3e0f0f603e10d2fbU, 0x3d84bb4e3db3d4f4U,
  0x3ccd21883e069ebfU, 0x39d9340a3c72cc88U, 0xbbd3e3063e0899f2U, 0x3dbd8dd33cf6d82cU,
  0x3d44b25d3dca3412U, 0x3e4ce39abd7bdd11U, 0x3e45cc973e7c591dU, 0x3e1365df3de8d505U,
  0x3e6830bc3e8259b2U, 0x3d5fc035be336ce0U, 0x3ea217c73d933821U, 0x3e42039fbe29705aU,
  0x3e89a9fc3eb0efbaU, 0x3c8e12b3be23eeb4U, 0x3e9eef3dbc424561U, 0xbd0d6efdbe68c32cU,
  0x3d993196bd710923U, 0xbf1dacdfbf0ae3ebU, 0xbf0f6715bd25d64fU, 0xbee4c5afbd5c0b2fU,
  0xbdb707febd226ab3U, 0xbf1358d1bf0e7c11U, 0xbebd488e3b8d00f7U, 0xbdbf9c71be46d4deU,
  0x3d7b5082be05c20fU, 0xbf258a71be88da79U, 0xbe8e60043da50c2bU, 0xbec98a1ebe1ffe5dU,
  0xbd56e9debe236eabU, 0xbeeb69cebe1ceb3dU, 0xbebaff483bc678f1U, 0xbf10b39c3d334751U,
  0xbd16c3fcbe287ea0U, 0xbeea8245be1c470fU, 0xbeaf48acbd195943U, 0xbe81bea2bd717478U,
  0xbd558f2fbb7740c2U, 0xbed4b274be975401U, 0xbe7509fabd77bd35U, 0xbebb30ee3d843aaeU,
  0x3d77daf1bd88627bU, 0xbeba6f9bbea99328U, 0xbe0d731fbcbf080eU, 0xbe5fbcb03e06dbceU,
  0x3e41e88cbd70810cU, 0xbe93339abdc1f5feU, 0xbeec1db93c9e2ed1U, 0xbef61a5cbe117ae3U,
  0x3dda5ee73da350ddU, 0xbebed56fbe2935aaU, 0xbf47de0b3ddc5c8bU, 0xbf006aae3d7a874cU,
  0x3e05e7d9be22fc78U, 0xbee9bdd9bed9aca8U, 0xbee7279d3dc15844U, 0xbf2800bebe2c0e12U,
  0x3dadd4723d85be01U, 0xbf05f9e5be954197U, 0xbe52211e3d92edacU, 0xbef90974bd3d231fU,
  0xbd54c8e23da6caa8U, 0xbf070e10bea04bb0U, 0xbeb05fc5bdcd8057U, 0xbf0dfee9be716e8aU,
  0x3e3c8ba13d5ae0c8U, 0xbed50dcebecccc22U, 0xbed828513e1a5162U, 0xbee9931fbe31a397U,
  0x3e096b6bbd2be4c2U, 0xbeb63ebabed95e23U, 0xbedb7069bd010c17U, 0xbf12ad4fbd8984b7U,
  0x3e1d98bebc82bf2dU, 0xbee4546abeb3d577U, 0xbe9ce7633e04dcecU, 0xbed21a2dbe6b1a51U,
  0xbd3627393d503a0bU, 0xbf1ea5c6be7f43e0U, 0xbea6014f3d2e864dU, 0xbe9502dabe3d53efU,
  0x3df65a1b3e17a859U, 0xbf0845e6be2f3053U, 0xbef971c03dfe7683U, 0xbeb4fd3cbd7aab39U,
  0x3d56295b3d7e70fdU, 0xbeba66153bc0cff8U, 0xbee6ad9cbca8658dU, 0xbecca6d2be10c2e7U,
  0x3e03ae803dd23e8aU, 0xbeb778f6becd6831U, 0xbec5087bbd91f9c8U, 0xbf1f7e613d9f0dfbU,
  0x3bc8ac15bd20541cU, 0xbe9b7c5fbe872811U, 0xbee94bfebd588196U, 0xbf12b6593b9094c6U,
  0x3d532235bbe07239U, 0xbe3af5763e81f261U, 0xbf11569f3e190078U, 0xbee307d33d5c9968U,
  0x3d19432a3cdf359cU, 0xbe1027893da14874U, 0xbf4542463d287cc6U, 0xbf2a32eebe4d9ca5U,
  0xbcbd87ce3daca82cU, 0x3ed07b2e3e8357a6U, 0x3e532e643e0d12caU, 0x3e2d6a1c3e154012U,
  0xbd926b0f3e7e4740U, 0x3eccda153e672dddU, 0xbd287f1c3d5b07a9U, 0x3e1cf0153e453fc9U,
  0x3de95c6dbd0cbc97U, 0x3e831e2b3e17f378U, 0x3db369da3ca48133U, 0x3e83693a3e2f62abU,
  0xbd357b8e3e30628fU, 0x3e6e857ebc223a32U, 0xbc251f853cdced5dU, 0x3e613b45bde9a388U,
  0x3dcdfe533e5e92daU, 0x3e6828ecbcbda661U, 0x3e81ee7cbd40fc5eU, 0x3e02269ebdccb547U,
  0x3d2b692cbd71c43eU, 0x3d9fb94dbd0f8b7eU, 0x3e3160703d475dd5U, 0x3deed661bda16296U,
  0xbd6ea8313e069ce2U, 0x3ea6ce493dbc1f67U, 0x3e6dff9b3ddc4c2fU, 0x3e7551f33ba10dbfU,
  0x3da10e313df02faaU, 0x3e188d01bc84728dU, 0x3e76ff4a3d3a7205U, 0x3e64bc5cbdd8082cU,
  0x3d7cb2f2bc85101bU, 0x3e800c56bd91cc50U, 0x3eb9ee743e1ca8e6U, 0x3e8817cb3e35fa63U,
  0xbaced7113d6190a2U, 0x3e8bdd4a3ead470aU, 0x3ebe6a59bd8071a9U, 0x3ee1d73dbc25fee3U,
  0xbd715f563e51548fU, 0x3eba2e4b3eb165edU, 0x3e7891b83d890f7eU, 0x3e6bf3af3e5bb373U,
  0x3c6f43433d617353U, 0x3e21d2fa3e5e8bbaU, 0x3e12cb83bd88c456U, 0x3e52d9e63e164f3eU,
  0x3b0a43623d4d21c5U, 0x3eaedd063e002168U, 0x3c6c8e03bd3d6889U, 0x3e0319fbbdba8d8cU,
  0xbc8e77d43d949785U, 0x3e69783d3e739d76U, 0x3dd02546bda4d860U, 0x3e9871f83d3581a0U,
  0xbdc3f99e3e65b053U, 0x3e44ebae3de989aaU, 0x3e5ecd693e3943ecU, 0x3d9df0383e891646U,
  0x3e02f93bbd941888U, 0x3eba0d4d3e50ebeeU, 0x3ebb3a6e3dec7de1U, 0x3e37c1f33dd716aeU,
  0xbdb7155cbc5a4b1cU, 0x3e7267f13e40c373U, 0x3dbe08023c968b82U, 0x3d9392c53ca79128U,
  0x3e3654af3da6355bU, 0x3e62865abd26d9dbU, 0x3e22cfb43e395129U, 0x3e87c034be2cb4e2U,
  0xbd2a49723c8b76d9U, 0x3ea27fdf3d8568caU, 0x3e951c733cad0b71U, 0x3e99df943da72ae0U,
  0x3dd978113dbcf41dU, 0x3de497bc3e315784U, 0x3edeb8e53e43060eU, 0x3e8f65fabd864007U,
  0xbd86bc19bd902a06U, 0x3e0f161c3d953060U, 0x3ee060223dcdbe99U, 0x3e8aa7d23d8ae022U,
  0x3d58f2053d59863eU, 0x3e0d58b03db33ffcU, 0x3efc56ddbcfa1940U, 0x3ec4455b3d759297U,
  0x3de799da3da30900U, 0x3f0900433e754a3fU, 0x3e4c05d13dfe42ecU, 0x3e3eb0bc3e55b54dU,
  0x3de97a12bcbea86eU, 0x3e8a2f153e99b94cU, 0x3e591c543df6bc2eU, 0xbd1c7d103e57dac8U,
  0xbd11c38d3ca9d607U, 0x3e8e984e3e895ddeU, 0x3e59225a3ca28d59U, 0xbce8822abd8e1be3U,
  0x3d94217abc2b445cU, 0x3e8c386fbcec537dU, 0x3dd6b2983de2de31U, 0x3e38cb1b3c17140dU,
  0x3d8a76bfbdd637c2U, 0x3e89dfdebd119f6eU, 0x3e4f88d0bd57a4afU, 0x3d0284e63e016fa4U,
  0x3d93f91a3db8b104U, 0x3e1e8de93e2d59e4U, 0x3dea4d5bbcf0f12bU, 0x3df0e3bbbdde7617U,
  0x3cb6e51b3dc8af39U, 0x3e39d0523e565febU, 0x3e0aba7b3c8b80d9U, 0x3e9d152b3dbbb503U,
  0x3ba98ddc3d0831acU, 0x3e8bcff13d705a33U, 0x3e3e7cd33ceb2664U, 0x3d6a91953e2e4ed4U,
  0xbb9c11d33dc11ef1U, 0x3e479036bc8519c2U, 0x3e8da2b13ca18606U, 0x3e7fc8813cc6cdc1U,
  0x3ded5f3a3de0dbc5U, 0x3e066dee3ead8b01U, 0x3e923c79bc98e2efU, 0x3f0756cebd823698U,
  0x3a2c43753d0f5bbbU, 0x3e4582333e56e94dU, 0x3c2ce6173da3de98U, 0x3dfb8cd53dc6fc6aU,
  0x3d18184d3ddb1720U, 0x3e3b4db33e066fdaU, 0x3e0870d6bd549560U, 0x3d99eb9e3c23a216U,
  0x3cb475a43d1382c5U, 0x3e09620a3deeb8f3U, 0x3e0c530dbaa32ce2U, 0x3e1aebd73de96221U,
  0xbdbb9f403e57b67dU, 0x3eb0a11f3e46d91dU, 0x3e5fea343b2e4f6aU, 0x3e3e4aae3e802569U,
  0x3dacb2413e785a59U, 0x3ee7a1ec3e8a9ee3U, 0x3e05b1233e1beeeeU, 0x3dbc0299bc297408U,
  0x3c875c4e3c9b1413U, 0x3ed744c33e6ea174U, 0x3e8141d43e4adaf1U, 0x3d9f4c133df143e2U,
  0x3e0fbdc5bdd139d1U, 0x3d1ac66dbc8418b3U, 0x3d97cbeb3d891d0dU, 0x3d9352d63da7d552U,
  0xbcea529e3e22c396U, 0x3e510d933e335847U, 0x3b0e10c33cf11d7dU, 0x3e5bbe83bd86d227U,
  0x3c952cddbd075ff2U, 0x3e67280a3d4ff6d0U, 0x3eb7bb3b3e2d1483U, 0x3e98fb62bcc676cdU,
  0xbcbb57be3d8a01a3U, 0x3e6e2eee3ddd6293U, 0x3e5a81da3e14a1ecU, 0x3ebd701e3e1c8189U,
  0x3dccb9c5be1ddb71U, 0x3e90d778bd43cd06U, 0x3ee95b2abd82bb7bU, 0x3edf78613e8befb5U,
  0x3da9d2e53d56cee4U, 0x3e066b653e3e1c2eU, 0x3f00f17dbbbc62eeU, 0x3f24b57d3e0e5855U,
  0xbdb3c9923e0fafcdU, 0x3e306bc6bda1af69U, 0x3dca778a3e3ccd93U, 0xbc0e78683da0d258U,
  0x3dabd32d3e21452aU, 0x3e1de83c3e3b813aU, 0x3e1090eb3e18a085U, 0x3d909dc63dedc6bbU,
  0xbc40a0223d3ce21dU, 0x3d7379f53e9223dbU, 0x3d9a6c3d3e521920U, 0xbd1fdb2abdfafb45U,
  0xbce1050b3d6abc1aU, 0x3e9413e83da808eeU, 0x3def38c43e063302U, 0xbc47ae0bbd35bf38U,
  0x3e0ef23d3e462c78U, 0x3df561923dca2cebU, 0xbcf179c2bca83f5dU, 0x3dd19c1abe4cd87bU,
  0x3e2048b93a8af414U, 0xbcd2f7bc3d0ff321U, 0xbd0cea41bca3ea3aU, 0xbbbcb1d2bdc918c0U,
  0x3e10714f3e05f0d8U, 0x3db40d213d888ef2U, 0xbccb54193e3e3c27U, 0x3e1a1984be1fe26dU,
  0xbe1fa8d23d615f96U, 0x3cdb2130bc76c188U, 0x3ddf0ca83dbe0538U, 0x3e5ea1c7bdacd678U,
  0xbe049cf63e512de8U, 0xbde4983a3c2391fcU, 0x3cdf0e673e288adfU, 0x3e248a6f3e308780U,
  0xbdba9e913e0cfb35U, 0x3cd0151c3e07e7eeU, 0x3e0f6cc8bcc548e6U, 0x3e6e6686bdc2df6aU,
  0xbd9f2d9a3e920c8fU, 0x3dd511b63e9d566dU, 0x3e53e3973e169348U, 0x3c4a8fa63cf56943U,
  0x3d14fc263e1b1edaU, 0x3e6c9cad3e19ebc7U, 0x3e0c27be3dddffdbU, 0x3e1b8b713d388c8fU,
  0x3dcf5e163e95405cU, 0x3e5581673c4cad36U, 0x3e11af743d77c14eU, 0xbcbeed3d3e23e643U,
  0x3e04bff53de07c8aU, 0x3e91e0f93e0e1962U, 0xbd3c76f23debd5c6U, 0x3e338a733d776846U,
  0xbcf829e33e8238cfU, 0x3e5059633ddc060dU, 0x3dfa8682bd17070eU, 0x3da3709a3e041e6fU,
  0x3e119108bb764febU, 0x3d241aab3e2531ccU, 0x3cff315b3e26a693U, 0x3e0420a13d777f62U,
  0xbcafb7a1bc32a95aU, 0xbdec99913e36c37dU, 0x3d1b2f523e529810U, 0x3d7f42bc3de11511U,
  0x3c8898273df68904U, 0x3e115a573e3c4487U, 0x3db889bb3e297f32U, 0x3e0e2fefbd286ca2U,
  0x3e26904e3daed71bU, 0x3e30737b3c86eee5U, 0x3e3fcee03d2b3950U, 0x3d65af53bd9d0be5U,
  0xbd968bb63e460821U, 0xbcbb97c5bd87d5f1U, 0x3da04c883e1c6d87U, 0x3e9c49793d3b126eU,
  0x3de7fcfd3e87728aU, 0xbdf708dcbd9aedecU, 0x3e4f9548bdbd3b4cU, 0x3e8df88a3b8ffeb4U,
  0x3e3260513db20f38U, 0xbcde01343ce0f9dbU, 0x3eb8bf2ebdaa5e11U, 0xbca772a83d1d9aa8U,
  0x3e2ab30b3e391c11U, 0xbe3d6367be2908a3U, 0x3c8117393e13f400U, 0xbdbed9f9bd38ba6fU,
  0x3e280de33e0ca7d9U, 0x3daf5f7ebca17c04U, 0x3deec90e3e40d3f6U, 0x3d67d4e6bd10b97aU,
  0x3e4603713dda4412U, 0xbbc0c1e03db00098U, 0xbd3cdc7a3d8ad753U, 0x3dc094a83dd1f3d8U,
  0x3e2e953a3e2efaeeU, 0x3dcb2d903cd35f16U, 0x3df2b2193e63d600U, 0x3cbfc76d3d49124dU,
  0x3e2b888e3e47a6deU, 0x3d2607a53da51d69U, 0x3dcf7f7e3e903134U, 0xbd82cc663e00eb71U,
  0x3e4ebe833e132894U, 0xbd6f56f23e09c830U, 0xbd9468ba3e98e78aU, 0xbdb150753ccd53d5U,
  0x3ea618c63e159256U, 0x3db645ffbc2782dcU, 0xbc4a716f3df90b5cU, 0xbd88d98d3d6178f0U,
  0x3e419c723e00dc1eU, 0xbddf0c3f3d643f93U, 0x3d7503353e801262U, 0xbdbba88d3dff9b64U,
  0x3ca8793b3ea4c678U, 0x3db3968c3dbbd272U, 0xbcf53c853ebcc0c2U, 0xbd886be33d9de4a8U,
  0x3d1168423e92667fU, 0xbd68d9f13d5981c8U, 0xbe1dd7083e4a6926U, 0x3db39fa3bcf6877eU,
  0x3dac931a3edbade1U, 0xbdadc623bb2727fdU, 0xbd11a8eb3df8ddf0U, 0xbd4917ec3ddd95d3U,
  0x3d0c576b3e9fd8faU, 0xbd2ed84f3d09fd78U, 0xbd373a843d3fa018U, 0x3dcd16263e2ced39U,
  0x3e757a1f3d4e1b84U, 0x3e0ca65dbde78747U, 0x3a849d2f3d9c09a2U, 0x3d9c26e33ca03fbfU,
  0x3dc2b1bf3dba4f1aU, 0x3d8c52e43ba19648U, 0xbdb37a523e6395b5U, 0xbe00c5f73dbd33b7U,
  0x3e942ee73ea1eff4U, 0xbe13be5dbd3dd861U, 0x3b860aab3da99433U, 0xbe05bdc53c5095daU,
  0xbb15d6de3ea58c37U, 0x3daa8ae43bf09e14U, 0x3e19b71c3e2cd99aU, 0x3ddbeff2bdb55fd9U,
  0x3e041ffc3e9942bcU, 0x3c7ae25dbccbec3fU, 0xbd3c35823d3cc31fU, 0x3dc60bef3d70efcfU,
  0x3e3ea3903dc87376U, 0xbda6548a3d67e2f6U, 0x3c4105e23dff3403U, 0x3dda50c33d1a2e5aU,
  0x3d99e0c63e3c79aeU, 0xbdf613783e1d2c2bU, 0x3d5664503dd8e53eU, 0x3d132873bd129f3eU,
  0xbc6ab2123ce4625aU, 0x3d36f49f3df47ef0U, 0xbd0421223de21c75U, 0x3dae9d1e3d9b5263U,
  0x3e93687f3dc9e02aU, 0xbd32ac39be0d18abU, 0xbdc008453e9a62e1U, 0xbdd02f493d1ddd0fU,
  0x3e8223443e113655U, 0xbe671051be85ee0bU, 0x3cdbe8633e60d764U, 0xbd599ca8be274fbeU,
  0xbdfa0111bd3f427cU, 0xbf3a14babee43fa7U, 0xbed4ab323e0c2c38U, 0xbec9df3bbd2e4636U,
  0xbcb12f39bde86ff6U, 0xbf22acb9bed005adU, 0xbf1844983d826634U, 0xbe81bd00be50942aU,
  0x3db0428a3dd4d1a4U, 0xbf1518d5beda7f52U, 0xbf05f3283bf4c5cfU, 0xbf184ff8be1cfe43U,
  0x3e2709b1bde84839U, 0xbf09dffdbef3c5f1U, 0xbf19aa70bd577176U, 0xbf1c58cdbe3b945fU,
  0xbdc733a83de3e152U, 0xbec86e03beb7ed5eU, 0xbe9fde1ebd5c1eccU, 0xbedac5a3be3e1b05U,
  0xbb65819cbda47b35U, 0xbee92061beda646eU, 0xbeb63f6d3d495098U, 0xbea26b01bda18b60U,
  0xbd717a233d3b517dU, 0xbe8b13a9bf088015U, 0xbedf4cf1bbc5669aU, 0xbf0055d93d288ea9U,
  0x3d8712ff3e314f04U, 0xbefafefabec34e9aU, 0xbf074d603e33e4f5U, 0xbef9c4b9bde07bb9U,
  0x3dbee4e9baa80a92U, 0xbe9cf93cbed2563aU, 0xbf27ad383d4716d7U, 0xbefcfd83bbadb70aU,
  0xbd9ca68dbd449490U, 0xbe8aa78abed3f829U, 0xbf2e2d6fbcdba03fU, 0xbf5a18debe1492acU,
  0xbddebbcfbe0731bcU, 0xbf0af772bebe3573U, 0xbead549a3d8bff1fU, 0xbf3f8b4ebe186192U,
  0xbcc31e213e090d1aU, 0xbf0d6314bedaa826U, 0xbf1c69423db88336U, 0xbf0930b4be91f558U,
  0x3e398cb9be050107U, 0xbf47f2b4bee98582U, 0xbf16d146bd3f0182U, 0xbf0a7077be8ce4e1U,
  0xbdc7435f3d266c83U, 0xbf0c8b01bf2516faU, 0xbf3198de3e29c68dU, 0xbf27b04dbe62660dU,
  0x3d8f3f963db2fae1U, 0xbf05b1c5bef2335cU, 0xbed544223d6d1057U, 0xbf1ff1bfbea14776U,
  0xbdc07bcb3e1ad741U, 0xbf5225a7bee2fbb7U, 0xbedc27043e4b66c0U, 0xbeeccb343d65f66bU,
  0xbc9f21f73e813d56U, 0xbed01f14be07bbd6U, 0xbf0b2985bd2eaad8U, 0xbf195638be15d3a2U,
  0x3d31ecbebd0dd4b7U, 0xbe8197f5bea986ccU, 0xbef298dfbd1e03b4U, 0xbf1c19143d73cba5U,
  0xbd2de6ab3cb7bfcdU, 0xbef75b42bec12581U, 0xbef7780e3e3277f5U, 0xbf1e8b013df172a6U,
  0x3e4f0fb63e17094dU, 0xbf03359dbe7617c8U, 0xbeca5654bb0fd0cdU, 0xbefaa88dbe76a077U,
  0x3dd917773d14d7bdU, 0xbf058af73e079594U, 0xbf4a8e9f3e408455U, 0xbf0a79c63d648a3cU,
  0x3d24fdf0bdc48657U, 0xbe043c00bd50a98bU, 0xbf547d713e037c83U, 0xbf307739bde2c303U,
  0xbe17d86e3d8bcec8U, 0x3e32f6d03e739fc9U, 0x3db4983bbde4aef3U, 0x3ea216153e4a0787U,
  0xbcadddb4bd91b991U, 0x3e22ff143c3dc9bfU, 0x3e983d43bc59ea24U, 0x3e4be32e3bfdf5b5U,
  0xbe5829a6bdbd5932U, 0x3e7795283d83bd53U, 0x3e205cc5bd08f873U, 0x3dc6a5e1bc5fd51cU,
  0xbe6def78bd9a5cf8U, 0x3e2ef0f43e531f80U, 0x3e00692bbded2269U, 0xbd0c99593e17e1d3U,
  0xbd466f3ebd98bd1fU, 0x3e4b89c8bcb87e8fU, 0x3ca496bfbd619946U, 0x3e6fbac23e57694dU,
  0xbde424b93dc0d9beU, 0x3c902cd43dd21c40U, 0x3e5897eabea0419cU, 0xbc3a50aa3d18c540U,
  0xbeacbe6bbd98b1eaU, 0x3e26093b3df93fc4U, 0x3dacfdf5be7d5d5dU, 0x3e6bbf673e3f49feU,
  0xbe848d71bcd250a4U, 0x3d3a11673e606293U, 0x3e88c4afbe7296b4U, 0x3d11f4ed3e39b36aU,
  0xbe78b322be0a9f7eU, 0x3d8be5933cb2e401U, 0x3d71d740bdd24466U, 0x3dde4d713e5674bdU,
  0xbe822e9cbdfc0f81U, 0x3e5bf49a3e4f1087U, 0x3e86f41dbce68660U, 0x3d92ab073e14d84aU,
  0xbd082a85be737e5fU, 0x3d88f6c83e66bb39U, 0x3d3ca258bd46d97fU, 0x3e5ca8623def09b8U,
  0xbe30653dbe154e8cU, 0x3dcbe7c93e3a28b4U, 0x3d17e2eebdf5a094U, 0x3e20fbec3e13b2d4U,
  0xbcf122073d716e7bU, 0xbca54c473d7e5bafU, 0x3dda81d8be1ba7a2U, 0x3d76e31cbd042ab5U,
  0xbe7a7a7d3da0bd92U, 0x3e560f6b3da0b93bU, 0x3c0521e7be00c80cU, 0x3d837d843d95f83fU,
  0xbe9a88cfbbdcdfa6U, 0x3e80d0a43e4a7bbaU, 0x3e6c5ac5be989472U, 0x3dbc4c523db85df4U,
  0xbe96cf12bdfc0589U, 0x3dbc35563e2fbb25U, 0x3d11b4b9bd8de06aU, 0x3d263d7dbd986987U,
  0xbe49b9cbbc77d038U, 0x3d9dcdbbbca8fd91U, 0x3e740160be412d3fU, 0x3ddb24573e4ad2a9U,
  0xbe82628bbe449fd0U, 0x3e585e15bd3813e6U, 0x3ddd04d0be4d0403U, 0xbbef7b20bd1c6ef3U,
  0xbe23a63f3d519a2bU, 0x3d5634713e3049f5U, 0x3e06ea91bd9702a6U, 0xbcfd64e13de3e51dU,
  0xbdf1abc4bd08412bU, 0x3e657ee23ca5dc4eU, 0x3e8e3e373ccc56a6U, 0x3c7e2807bcd46a5eU,
  0xbe4f87323cfbfc07U, 0xbd8606f33dae6d80U, 0x3e13d9d0be2a83d7U, 0x3e4dc9f23e7d7df6U,
  0xbda0e2833d261faaU, 0x3de152d23de7a491U, 0x3ea2b9bebe7d402fU, 0x3e09b7c33df741eeU,
  0xbea469f2bdc1bfb4U, 0x3e9117d63dd2f90bU, 0x3e0a4758be635938U, 0x3e5531463d20c408U,
  0xbe92ae79bdd7eedaU, 0x3d722c303e230309U, 0x3dec0b75be7a211aU, 0x3e0043423e08a6bcU,
  0xbe30f2153d899c03U, 0x3e2094bcbd726ee8U, 0xbd2400db3cc6b337U, 0x3e844c9c3c771624U,
  0xbd5ac5913d692a50U, 0x3d94a1e13e6a6872U, 0x3e1c5388be791db9U, 0x3e2a644bbd6d217bU,
  0xbe4bfbeabe108ca5U, 0x3cdf61a03e7e70dfU, 0x3d525745bda99471U, 0x3e19ebf03e1842c6U,
  0xbea221febdbb97f7U, 0x3d4c90ea3e812afdU, 0x3e671355be18fb73U, 0x3d9b04383e037b26U,
  0xbe87b7cdbcae2094U, 0x3e8d6fad3db2c72eU, 0x3e1f1555be7edcc3U, 0x3d8280143dd32797U,
  0xbe7a6e993c855798U, 0x3d7135283d9ec917U, 0x3d2641a7be8764ceU, 0x3e9be050bcfbb46fU,
  0xbe7b4be93c0788b5U, 0xbcf6a0ea3e14cbbdU, 0x3e3160bebe99fd03U, 0x3dc57b4a3dbf0eeaU,
  0xbda3b10bbda15ca8U, 0x3c0a390fbc0f73afU, 0x3dcec81ebe95f9f6U, 0x3c94ff813d6ea6aaU,
  0xbce4b42ebe389a6bU, 0x3db15fa53ce47735U, 0x3e1ffd38bc40f73fU, 0x3e1042f83e1737bdU,
  0xbe0a0de4bc83d182U, 0x3e88042e3d6fc204U, 0xbc0168dbbe706deaU, 0x3cb4d96b3d801bc7U,
  0xbe4bd3a43d487ea1U, 0x3d6634f83dd7b072U, 0x3e3f32c3bcf9e2aaU, 0x3e1cca653dde2fb6U,
  0xbe65952bbe083244U, 0x3e1549483e351a8cU, 0x3e755af4bd91801bU, 0x3e6354133e445212U,
  0xbe8b8f9dbdce9450U, 0x3e630d2b3e624013U, 0x3e247414bdf43a16U, 0x3e30baf13e46daf5U,
  0xbe85fff5be2f86f5U, 0x3e8710603cad5842U, 0x3e725899be2be497U, 0x3cbe462b3e524047U,
  0x3ca0f48dbe47e22fU, 0x3c82e843bce04c5aU, 0x3e788f38be4a4ee6U, 0x3e1fc3ad3c18e201U,
  0x3bd8bd94bde16f4fU, 0x3d6642b53d792c43U, 0x3cb6b3a7be897ee8U, 0x3d8a35c73e51ab7bU,
  0xbcf76fcf3dd403e8U, 0x3d2074103cf9b8ffU, 0x3e3a7b08bca047f2U, 0x3da776e73e2eb91fU,
  0xbd3082273d354705U, 0x3dd143a13e2389e9U, 0x3e8df16abe141892U, 0x3d564595bd38a61bU,
  0xbe940567bdbdccafU, 0x3c4a983f3c9a415fU, 0x3e7f8f5c3ccbbdc3U, 0x3e3b75523e7fafffU,
  0xbe1e6c79bd567624U, 0x3d34f51c3dbf77a2U, 0x3eae099fbda77941U, 0x3e52c4b23db629f6U,
  0xbdc3a7fcbd245b79U, 0x3e0bc5e33e72b486U, 0x3df7f610be8c268aU, 0x3e9181d33e5f2658U,
  0xbd94aef6be1e6385U, 0x3e7fa0973db7c25fU, 0x3e722bf1bdaa1229U, 0x3ddc71203db4d3deU,
  0xbd139136bd5e5f23U, 0x3e82c2443cc5feecU, 0x3dd04eaabd1879d1U, 0xbc2ceea33dbf67c2U,
  0xbc7b36babe4065abU, 0x3e2ef2ee3e78f2c3U, 0x3ccb5f08be0ddc9dU, 0x3e6c22153e1d61ebU,
  0xbe84e924bd20b0d0U, 0x3e5dfe6d3c8fc7e6U, 0x3e18af6dbeac7491U, 0x3c32f378bc886537U,
  0xbdc6e4753ce4d594U, 0x3e4ec3183ddf47e6U, 0xbca79f8dbe09ee41U, 0x3ba26f8a3e176a9dU,
  0xbe628fe43e38fde5U, 0x3e86a1873caf1324U, 0x3ea41de8be1e6364U, 0x3d9ad0b4babb5710U,
  0xbe64c342be1b1ef2U, 0x3e3bb1e73d8233e5U, 0x3dc5f351beba23caU, 0x3d96951b3e7d87b0U,
  0xbe50fef5be6c98d0U, 0x3d02dc113c78ddafU, 0x3e115a3ebe98e194U, 0x3e29f8a23e594d15U,
  0xbe8245d6be2cb20cU, 0x3b95ee683e2a1ce2U, 0x3deb8a7bbdb246e2U, 0x3d2488d23e4ee772U,
  0xbe8acaadbe697f13U, 0xbbd808c23e275783U, 0x3e2f0f59be5ce804U, 0x3e0cd932bd9b9bfdU,
  0xbe5a73c4be21023fU, 0x3e2d97b43bf5b219U, 0x3e320e9bbd9185d4U, 0x3e04690a3e510ae9U,
  0xbdcfd6a43d7da1dcU, 0x3d795c903862e261U, 0x3cb88ff1be04fe7cU, 0x3dfc6f733e1a2e12U,
  0xbd9681b33e030ae4U, 0x3debad283ddbbbaaU, 0x3d9c0faebe43c4b8U, 0x3ea495753ded72c9U,
  0xbd8fc1fb3bd40c81U, 0x3d5116893e2eb378U, 0x3e691e79bd8918a2U, 0x3e34c810bcc9d6f2U,
  0xbe9ba7be3dcb62e5U, 0x3e40592cbc67d1b5U, 0x3d8b1f63bdc6ad9eU, 0x3d8142523e0cb8d6U,
  0xbdc07e4ebde40b9dU, 0x3e7166103e089b25U, 0x3e509d75bdcfa3daU, 0x3e1687f63e1b2275U,
  0xbd8582edbe3ab833U, 0x3cf076b3bc019c10U, 0x3e6a08d9be8baf93U, 0x3d9d886bbcba12b0U,
  0xbe1f8943bd542463U, 0xbd1490e2ba5641a9U, 0x3df9fe17be62dce7U, 0x3d42f2473d3da15aU,
  0xbd3eb6043d06f814U, 0x3dfc21383ca87f9cU, 0x3e968a68be136becU, 0x3e117abcbdb174aaU,
  0xbe11fa10be2043a5U, 0x3df93f01bced8a00U, 0x3e29c1c9be51e003U, 0x3e89948a3d35d9adU,
  0xbe0efc113ce86648U, 0x3e3308a73c8b864fU, 0x3e335c8fbda003caU, 0x3e6c4e913df37ed3U,
  0x3d8556c9bcd73f00U, 0xbf47516dbf1f06a1U, 0xbef15497bdc90973U, 0xbe808565be46085fU,
  0xbd01929c3d166ef9U, 0xbf4872a9bf1d36f8U, 0xbe1308843c1c0787U, 0xbe978015bd9ec6f1U,
  0x3d81eee33ce6d2baU, 0xbf2e73f0bf12d355U, 0xbeab18223dd03cb3U, 0xbe9eca73bd69e2bfU,
  0x3e2bb2c5bdb63f93U, 0xbeb75962be6b061dU, 0xbe3947523dd22f92U, 0xbf0727f4be21ec0cU,
  0x3d6c95d5bccc4589U, 0xbe91e98abe37b653U, 0xbe8c56173d1b8a48U, 0xbeaa9f43bd392486U,
  0xbcfac25ebbe4d66cU, 0xbeaf17cfbeb6971dU, 0xbe707dac3e19b7f7U, 0xbe9cf7f7bccc122fU,
  0x3dd597f93d11558fU, 0xbebc2f54be8b5e86U, 0xbe7baa63bd1d9ab7U, 0xbec98734bdb4c0baU,
  0xbd4c489e3dc9b0c2U, 0xbeccb385bded3216U, 0xbe3f9c1dbd4563ddU, 0xbf058a11be03158aU,
  0x3e1ff2723ce8be38U, 0xbe0ac2d2be09714cU, 0xbf1820313d02a18bU, 0xbf23a1d1bdde8baaU,
  0x3b8294d93cdd5cf4U, 0xbe82a442beffd88dU, 0xbf121dfc3e2675f1U, 0xbf54b1bdbdc31d05U,
  0x3debfdaabba8d627U, 0xbecec31ebecf0fefU, 0xbeaf8e7b3b4604a4U, 0xbeba56c9be324a08U,
  0xbd2338ae3d815488U, 0xbf293d3cbece8e21U, 0xbe5a73fb3d4c6d11U, 0xbf0a9d97be98d209U,
  0x3ddc11edbda6f49cU, 0xbf0e8b0dbec66688U, 0xbe9e91f93e0fd6f5U, 0xbeb938c1be51f9b5U,
  0x3e1639443dae4c77U, 0xbed56256bef3b6b4U, 0xbead45ba3de9184eU, 0xbf2bb1d1be44a607U,
  0xbd8c76debd14fd36U, 0xbedbd39bbea4ca4fU, 0xbed12146bd9df876U, 0xbec65ce5be667ba5U,
  0x3e01d862bc7edbc0U, 0xbf402361bea58341U, 0xbec218efbe018377U, 0xbf14b225be282c05U,
  0xbd8f08f23e3c0dc7U, 0xbeb66594be313963U, 0xbeae9168bce77849U, 0xbf11da3dbe20eb37U,
  0x3beee0b33dd80de4U, 0xbec82d97be66e6b4U, 0xbee4e557bce290dcU, 0xbeea3d143d8d6240U,
  0x3de7273e3b86a98cU, 0xbf06307abe258cd2U, 0xbe6f388b3e312369U, 0xbf0ecf61be3e1058U,
  0xbde05ce93d963dbbU, 0xbe3d7353be15d9a0U, 0xbefbf0f7bc7800dcU, 0xbf00f62ebe3f9d4aU,
  0xbdfc7daa3e2e34d4U, 0xbe8eb27c3e7b5f17U, 0xbeebee0ebb1c6f4eU, 0xbecfbae23d604080U,
  0x3da54b333d4b3d82U, 0xbeb75a83be07b569U, 0xbf4226d4bd865f9aU, 0xbf056e63be0fc087U,
  0x3e03d58e3e2c8b15U, 0x3f0dd64c3ebd9fe0U, 0x3e3380e93e09e94dU, 0x3e669deb3e48ef34U,
  0xbda92d2f3c6f86efU, 0x3ec10d933e61f420U, 0x3e9c9fbb3d8dff1dU, 0x3df200583e24637eU,
  0x3dc8d99b3c9d9e07U, 0x3edc4f273e7a90faU, 0x3e62a3843d8f2d38U, 0x3e4e9e253e27df1fU,
  0x3d96544e3e019fcaU, 0x3f0a75f33e339d2fU, 0x3e219bbf3e3895cfU, 0x3e1c45ea3e205dcfU,
  0xbd15a5b23d027250U, 0x3df62f893d0ec021U, 0x3e8f3a313ced251fU, 0x3e4071f63d95ae86U,
  0xbcd053423d51cd17U, 0x3ecba3723d5dbfeaU, 0x3d6542393c2579beU, 0x3e782827bdf02bd4U,
  0x3dfc1e443e234cdcU, 0x3ec610603e0bfe4eU, 0x3d89595dbcbcef3dU, 0x3eea3b6d3d39baa7U,
  0x3cca17263dbd825dU, 0x3dfefbe13e34611cU, 0x3e96e8bc3cfef5c3U, 0x3e6cab3ebdb00f63U,
  0x3dfe95a03dc4485dU, 0x3ecfb1b03e368b80U, 0x3ef79c9dbd64358bU, 0x3f171f963c67f7f3U,
  0x3cff58ae3e80b9dbU, 0x3eb4c90e3ed54768U, 0x3edf68a0bdd50486U, 0x3eda875d3e182808U,
  0xbcbc94f8bdd509aeU, 0x3ee32fd43ed2c546U, 0x3ea567413dd10c73U, 0x3edfc5d03eabbf51U,
  0xbc94e2683e49ff42U, 0x3ed502c93e9b5894U, 0x3e66d90b3e0c083aU, 0x3ea132c73d034cb4U,
  0x3d5f0dd13cd739fcU, 0x3ed6f1383eac574eU, 0x3c8b48ba3de68425U, 0x3ed3a5f2bd274905U,
  0x3cfff3b8bb071f28U, 0x3ea3cae93eea59d0U, 0x3dda64683e04d1c4U, 0x3ec3cfc53e2db9e9U,
  0xbd87c6f33b9d3f16U, 0x3f1e8b2c3e4fc9d3U, 0x3ecb5f0a3e1ad15eU, 0x3e36b2133e10d363U,
  0xbcde49af3e2508e6U, 0x3f09be763ce109a7U, 0x3e879f243db727e0U, 0x3e81acdcbcbf09d3U,
  0x3d9b4b47bc8ee6c3U, 0x3ebc03663e224459U, 0x3e3b26773e41a4aeU, 0x3e87aa76be039998U,
  0x3b40b8773e4d6d94U, 0x3e1e32003d9d352aU, 0x3e6ee3003d93d804U, 0x3e350ca1bd698e00U,
  0x3dc895efbdba31e2U, 0x3ec9a4c83d7d4f5dU, 0x3e6f0014bc5d3536U, 0x3eb80f05bbb8f5c8U,
  0x3cd12119bdc5dcfaU, 0x3e81b7de3e75da19U, 0x3eb21cb43daee089U, 0x3f162471bcc5acc5U,
  0x3df854a1bc3eb26bU, 0x3e2d321f3dbc41c1U, 0x3ee9c902bb4485bbU, 0x3f03af1c3e744514U,
  0xbdbca6aa3e7e22d0U, 0x3eeb5f663eabedcbU, 0x3f1eca3d3dc07f59U, 0x3f0611203eb4c864U,
  0xbd7cdab73e62d598U, 0x3e2931c83d659446U, 0x3c30d0033e03311fU, 0xbd9d4ce63dc37bfbU,
  0x3d805e243e35b2b4U, 0x3dc1bead3e83fda6U, 0x3c09a1aeb95ae875U, 0xbd9819733dd0bb14U,
  0x3e4a3f2d3dd7b591U, 0x3d782616bd2e9b37U, 0xbcd658283d12c313U, 0xbc189c8cbd5c3940U,
  0xbc94ce8c3e4b08a4U, 0xbc36b92d3b89c977U, 0x3e28573c3e072416U, 0x3c60ff303d1dc425U,
  0xbd9a79893e35bd4cU, 0xbc903fe93b2bff07U, 0xbde06b303ddb251fU, 0x3bccc9563dcb523bU,
  0x3e56b8ca3dadedd4U, 0x3e3234a73de48c1aU, 0x3dc052b13dcd86eaU, 0xbd00496e3dc17f3eU,
  0x3e1d43093d9d7f21U, 0xbdc34a083d21b69cU, 0x3dfbcdb73e4eadeaU, 0xbd281d38bdc423f3U,
  0x3e35c3933e0ab935U, 0x3d1dc6983e1d53caU, 0x3e368b403e11c965U, 0xbda10231be1ef2eeU,
  0xbce554563e52f4f0U, 0xbd23d5c7be10515eU, 0x3e11a67a3dd75430U, 0x3def1539bd025c5eU,
  0x3e0645843e8ceb18U, 0x3da060243ddc7589U, 0xbd7a826e3e31d948U, 0x3e139cb93d4c1f19U,
  0x3d9626553eae3bf3U, 0x3c0c1bf83d86cbcaU, 0x3e4be7e1bccbe40aU, 0x3d6f32e23dbc2b4fU,
  0x3d96befb3e3e39fcU, 0x3e41ad633e255a29U, 0x3e2c4e6e3e82a568U, 0x3db018debd81ac35U,
  0x3e089dae3e33d076U, 0x3e57b68e3c6aeb07U, 0x3ddd9c553e5ab59eU, 0xbd56dfdfbd46f0b4U,
  0x3d0832c13d37aac7U, 0x3d96a5e53e55b6deU, 0x3dac8953bca7e712U, 0x3de99f8a3d2a627aU,
  0xbdab25993d89dc17U, 0x3dda02a6bd77c1f8U, 0x3c81c31b3e848066U, 0x3db22912bdb8c039U,
  0x3d3093de3e942e4bU, 0xbdea9c7a3dd8ad59U, 0x3e1b25b33e33a0edU, 0xbd228e933d7d0d8cU,
  0x3e3f65d53e59803bU, 0xbda20dc03e0bbf3aU, 0x3cc1d6ff3e89721cU, 0xbd8112f1bdb9fcc5U,
  0x3dfe3d9c3e982f9dU, 0xbd8d466e3d178f7fU, 0xbcb04b373d8998e5U, 0xbdda40833df12a50U,
  0xbd34b6e2bd89dc02U, 0xbdaa8e9f3e0079b0U, 0x3db081ee3d3e64c0U, 0x3e341d0bbdb6eae2U,
  0x3e1feffb3e85e04dU, 0x3e2acedd3d53480fU, 0x3e241b913defe96eU, 0x3d7901fc3d052708U,
  0x3d98aaa43e5a7021U, 0xbdc1647dbe0ffecdU, 0x3e88e258bc3a3847U, 0xbd734997bdbb0e8cU,
  0x3e771e133da58ca2U, 0xbda333b5be0d5aa9U, 0x3d9e0e8a3e5d6504U, 0x3ce07ad1bdff2fddU,
  0xbe52199dbdbe91fdU, 0x3e0504b63e56e06fU, 0x3e740a87bea9082bU, 0x3e57519f3e8a9202U,
  0xbd8846e7be8c468bU, 0x3e771b28bd5d4105U, 0x3df24fccbe85b37bU, 0x3d425c473be4b14bU,
  0xbe39d1ecbe7f17f1U, 0x3d22eb163e164203U, 0x3e302a89bdc28582U, 0x3e7872b23e46b64dU,
  0xbd8f673f3cae6fd0U, 0x3d93c65e3e39d8b1U, 0x3e43405cbcf0398eU, 0x3e682d9ebcfde6caU,
  0xbdec46d13ce4766aU, 0x3bb4c2763ddcf8b1U, 0x3d8c4cc4bdbfa075U, 0x3e688d7d3d49d4e9U,
  0xbe4115ad3ba0403dU, 0x3e650b073e343ea2U, 0x3d3a0da6be91a6f9U, 0x3dc232a73e00e2d7U,
  0xbdd825073c9a3b91U, 0x3bce9184bd06c20aU, 0x3e819a0dbea844d6U, 0x3d064cde3e2e1835U,
  0xbebb326c3d5a1b4cU, 0x3dd24d12bcbcc47fU, 0x3e5317c0be13879dU, 0x3e80c77b3e402f4aU,
  0xbdd9f5ebbe538722U, 0x3d2d46af3e89f087U, 0x3e4fa3e9be7b00b9U, 0x3e834d923e63181aU,
  0xbead03dfbe304dfeU, 0x3e8fbf983cf7dd02U, 0x3db5d824bd85ce07U, 0x3ddcf9523d67cb8aU,
  0xbe4c96babdaf591fU, 0x3de040583d5f8e39U, 0x3c1ed800bd31e2f1U, 0x3c2c9cba3e41a8ccU,
  0xbb9cce7ebe4ea897U, 0x3dd4ebde3e996770U, 0x3e3b0a8abddb79daU, 0x3d8351533e58e20dU,
  0xbdb873e6bdba705cU, 0x3aa1d3e53ca679d6U, 0x3e192c87be8a5a2aU, 0x3e863b1f3d51c45eU,
  0xbe9dc44b3ae8c326U, 0x3dc0b9823e81b721U, 0x3d98482cbe2e19d6U, 0x3e8752173c755c58U,
  0xbe4189853d8b77dbU, 0x3ddfb0673d41806bU, 0x3e856eaebe669284U, 0x3e6c949e3e59bf56U,
  0xbe849379be2e2de2U, 0x3ca911763e11b290U, 0x3d651dd4bd9d6d8aU, 0x3df74f44bda00cdcU,
  0xbd5d14d5be2b6edcU, 0x3e0c30c83dd7ee66U, 0x3dcd1c96bd4b51f0U, 0x3e70cf073e3b2c9dU,
  0xbe5788d8be82392cU, 0x3e93a0313dfa61abU, 0x3b9ddfedbeb7f5b0U, 0x3e0e17cfbd51eae9U,
  0xbe4c05483defe0bbU, 0x3e5462143dcf4203U, 0x3e947bfebdf4894cU, 0x3e050969bd234b0eU,
  0xbe7f7bf9bd3122b3U, 0x3e758ae83e2063b7U, 0x3d83244fbe4ac7e1U, 0x3dea2796bd947dd5U,
  0xbe8948c6bddc69e2U, 0x3e2275b93d8f9757U, 0x3e3d8bc8be335df4U, 0x3d0d169e3e18c5c6U,
  0xbebc3b863d31fa86U, 0xbdf36a9f3d92e99fU, 0x3e992fcebe2b7261U, 0x3e13f5eb3e18059fU,
  0x3d935c82bd068ff1U, 0xbebfe3bdbd12d519U, 0xbe087cf03d7b3aacU, 0xbe32f1ca3cb72a3cU,
  0x3e785ba0bd280a30U, 0xbe559e30be062ea6U, 0xbda4f26ebceddf76U, 0x3d977a70be070543U,
  0xbd1109d13da09c93U, 0xbdc0f5033b78b1eeU, 0xbdf461503ddb5e7dU, 0xbde75bdd3e04a488U,
  0xbb485492be0c255bU, 0xbe9ab4643d65bbd7U, 0x3c0f116dbc6a5a2dU, 0xbe3a3c483e46ead7U,
  0x3e2b98503dfed00bU, 0xbe15e3a63df62033U, 0xbe2222eb3e4d0d05U, 0xbe53c9cbbcb9e420U,
  0x3e4ecab93d1e1a9dU, 0xbdb5a4143d964992U, 0x3d96e72f3dee7aeaU, 0xbd78f2403e28a315U,
  0x3e6785d83e58f08cU, 0xbe7efc22be67e57bU, 0xbe42d658bcd6f6b1U, 0xbd0b1edf3d603784U,
  0x3e4fa0fa3df2f53cU, 0x3d03f2b73e145894U, 0xbd4003bc3d932e10U, 0xbda832b73c5a174eU,
  0x3d2e60223cac2e05U, 0xbe8bab61bd43a554U, 0xbe6e493a3dc25b35U, 0xbed9d36cbd9a390fU,
  0x3d86ea31bddcf448U, 0xbe6c3077bc69a221U, 0xbec138673dc91f41U, 0xbeddb113bdda7452U,
  0x3d012b5dbdcce955U, 0xbe16896a3d2e77cbU, 0xbdd593e53e1ad607U, 0xbddae352bc8664ccU,
  0x3e36177b3e3402a4U, 0xbea81131bc7ad341U, 0xbe0b7fea3aaa6715U, 0xbd9a5217b9b21b2fU,
  0x3e24c6f5be1db5bbU, 0xbe176d89bdaba863U, 0xbdbec17cbcf1069cU, 0xbe37df4f3e16564fU,
  0x3cee67373d966400U, 0xbe8b4afebe343eecU, 0xbddd4a393db0522dU, 0xbed2ab80bd81cbc6U,
  0x3e83a80fbd54486fU, 0xbdf1a1003d840448U, 0xbe551754bcdc658bU, 0xbe77bf54bda2634aU,
  0x3de2633b3ce9b1ccU, 0xbe68be86bd34e962U, 0xbe1fe7823e171ddaU, 0xbd116247bd34a3deU,
  0x3d94901b3e3b5d54U, 0xbe8c44a03dfc3037U, 0xbe8555a73c232230U, 0xbe53d0c53e1934bcU,
  0xbc7e507e3d94fbcaU, 0xbe4c6e3a3bad17ffU, 0xbe3224d3bd509549U, 0xbe1814ad3e8a73f3U,
  0x3e41d2923e30e76aU, 0xbdd812e1bd567ddaU, 0xbe2df4193dcdc0a1U, 0xbd60b4cebdad2d27U,
  0x3e6cdb7bbce66613U, 0xbda882623de4d3b8U, 0xbea5839a3e73f89bU, 0xbe5990833e0e7e46U,
  0xbd62116d3db3017dU, 0xbeb60c543c915689U, 0xbf0e4c723e6ec45cU, 0xbe4ae7b8bd834a76U,
  0x3e1cfd41be05f316U, 0xbe8cc648be8d2dbcU, 0xbed8f2173e82b5c7U, 0xbf04c569be22cef5U,
  0xbe8d8fd63cfcdd01U, 0x3e0a06c43e34f1e2U, 0x3e61e3cfbdca1581U, 0x3df18dda3e1a8071U,
  0xbe9eab88bd1d1026U, 0x3e2cccaa3d27f745U, 0x3e9fc560bdd69d48U, 0x3dbcbce13d977b9dU,
  0xbe4c407dbdf8cd66U, 0x3d00ab663e62213eU, 0x3cec4d36be0acac1U, 0x3e22e03b3d1a9590U,
  0xbd38b9a4bca80412U, 0x3e5327273e3f0ecfU, 0xbba1f429be47367aU, 0xbc9894af3e05244cU,
  0xbe83b32dbe29f79aU, 0x3cedb99e3e33bb6eU, 0x3c545c8dbdb4d9b7U, 0x3e0613f03e273e53U,
  0xbe402059bbd663eaU, 0x3db09bb23c88121fU, 0x3c6cd40ebdb057efU, 0x3e83fcde3dd80437U,
  0xbe8125373d91ee45U, 0x3dbe9a853e828f93U, 0x3d8ac422be6708d4U, 0x3e749f603caeabf8U,
  0xbea016043dbc53b8U, 0x3dac1129bc4b5081U, 0x3e8e59cdbe8cdc6bU, 0x3d91bf0c3b0a75acU,
  0xbe7ca019bcbe4274U, 0x3dbcef7f3d7acecfU, 0x3e777adebe43a201U, 0x3d9142293d75f82eU,
  0xbd2aef8dbb7a986fU, 0x3dcc267e3d2f482cU, 0x3e245914bd8ce57cU, 0x3d34a2f13e64cdd4U,
  0xbe75beaebe5b6f15U, 0x3bbcaf2a3d8dfc77U, 0x3c0e243abe443227U, 0x3e3c48153e36f66cU,
  0xbd4309cebc395c82U, 0x3dfa157d3d254051U, 0x3ceda62abe5b0f5aU, 0xbd21f69dbd458f34U,
  0xbe0918423de74acdU, 0x3e5e635b3e829f39U, 0xbc05de83bdd8b95fU, 0x3dfa6558bd3ad6b9U,
  0xbdf8c7d83c10e54eU, 0x3e2d03553e4f2c3bU, 0x3db7bd8ebd8b7b66U, 0x3e09f85f3e660893U,
  0xbe91df58bdebde9aU, 0x3de11aca3bf7e71fU, 0x3e71ecf3bdac9d21U, 0x3eb1cd113e3c479eU,
  0xbc342cd6bd179484U, 0x3e87789a3de1d114U, 0x3e4b8edebe6e1af0U, 0xbd138b64bd4a51ecU,
  0x3d17e6d73cce73bbU, 0x3ca93536bd630fabU, 0x3e13baa9bd6db218U, 0x3dcbc22b3e3377a4U,
  0x3bc8b205be5790d5U, 0x3d5714153c2d8458U, 0x3dc661fbbd751fbfU, 0x3dc8dd473e54008eU,
  0xbe915a273e134d5cU, 0x3d930aba3c93a17bU, 0x3e7b83ccbe81e32cU, 0x3dca88b23e3de3d5U,
  0xbe8a2fb43dd48e99U, 0xbd0400513e323d9cU, 0x3e778886bd636e23U, 0x3e2715413e13ccf2U,
  0xbe836f40bd3e7ba9U, 0x3d67dc9d3b47cddaU, 0x3e16ea633d06dc59U, 0x3e3e7f96bd1457f3U,
  0xbe1cfe9b3b2c3c24U, 0x3e1ad36d3d5c5b9cU, 0x3e199986be7f6aeaU, 0x3e4a011c3d827768U,
  0xbe82fa69bd80b8d3U, 0x3e2d06573e6217c0U, 0x3dac2725be509237U, 0x3c9cc8ff3e16712cU,
  0xbe18d6d6be488c4eU, 0xbaf1220ebd89217dU, 0x3ea03461be3c036cU, 0x3d3a58293e2803b4U,
  0xbd1ab7b43bc4fee9U, 0x3c9c4a233d4a0e15U, 0xbcce1951be730720U, 0x3d56691e3a8f33beU,
  0xbe25a3dbbe0c60a0U, 0x3e600dca3d4a05e5U, 0x3e1a918dbdd143b2U, 0xbd47f9ee3e4f9310U,
  0xbdd5fe9e3dba429aU, 0xbd2f7c903d461464U, 0x3e0297ecbd6d5185U, 0x3d47c6933e0d332bU,
  0xbe2d878a3db0f46bU, 0x3e65b8c33e43cd99U, 0x3e20bf54be7b69a5U, 0x3dabca603e157328U,
  0xbe3f0846bdb056f5U, 0x3e5f51dc3debc3acU, 0x3ce837d7be0cf7a3U, 0x3dbf77973dcb1a5eU,
  0xbd98f7f0be233664U, 0x3e54e6c33d99bbffU, 0x3eaf01a5bdac7e3aU, 0x3da1303c3e3087d8U,
  0xbea221e3be674bc1U, 0x3c8c31873e8e7a39U, 0x3d6b79fabe9db8d2U, 0x3e8bf26b3e05de1fU,
  0xbdbefc93bd9bbeefU, 0x3df593563ca7691eU, 0x3e76c989be8804c7U, 0x3b3979953e5a5195U,
  0xbc78ecdcbc984590U, 0x3cad411b3e0d4d72U, 0x3da32cbbbddcb5c4U, 0x3b30902a3df3edd3U,
  0xbe125b70bdae17edU, 0x3e34b076bb0437c0U, 0x3e013759bdc19719U, 0xbd1553d23e641793U,
  0xbe4679cfbd4f5591U, 0xbc9b4e603e6814f4U, 0x3e113563bd367545U, 0x3c3a49523e30e732U,
  0xbe3ae6ba3d642c00U, 0x3c474ab33df737d3U, 0x3cdd056cbe3f772fU, 0x3d358f713e1f8f5fU,
  0xbe8b8a1b3d85ff6cU, 0x3e80a6a1bce7e32cU, 0x3d097511be0e9624U, 0x3e5c0f563df49e77U,
  0xbe8a77fa3d80cd1bU, 0x3e7ce3923e2e7a45U, 0xbc051208be81b9f4U, 0xbc5221543d84515bU,
  0xbdafd75cbe3fb98cU, 0x3e0c0dbf3ded38a0U, 0x3e70ee01bd748b58U, 0x3e472d52bc775d49U,
  0x3af42c6bbe41a4ebU, 0x3e85f43f3e5a96b9U, 0x3cc1a980be8e26cdU, 0x3a886d403bc6bc2bU,
  0xbe59b3363d808476U, 0x3dcb2a1f3e624a7dU, 0x3e7cdccfbd894eeeU, 0x3de9b9873d8a1b69U,
  0xbe4ddfffbc891ffbU, 0x3e66f1193e521331U, 0x3ce0f194bd8ab70dU, 0x3e4e7b38bd966449U,
  0xbe43185a3db8c629U, 0x3e4d62ae3d372932U, 0x3e429415bda69c13U, 0x3e6f20d93dc3b15eU,
  0xbe1f0dedbe082ef2U, 0x3e1478bd3d91b0bdU, 0x3e9d1eb0bdb35afaU, 0x3e1aeae43cad0d79U,
  0xbbe1d272bd18b5afU, 0x3e67b3343e936655U, 0x3cc937aebca248fcU, 0x3af8ed083e8123a1U,
  0xbdb70c26bdcb4e03U, 0x3e05de1cbc7d7957U, 0x3d92887fbe164989U, 0xbbf3523d3e65c7f8U,
  0xbe5c79373dd4640aU, 0xbd4086cabd22a098U, 0x39ec5640bd833cd9U, 0x3e5aea0d3e04348eU,
  0x3dbb6d7fbd88ce74U, 0x3bee0eb03db35edcU, 0x3ce7cea2bda63b99U, 0x3e0d80ad3ddf9037U,
  0xbe3048cd3dc53f9eU, 0xbd90ae71bc1b4129U, 0x3d2c4446be6c4207U, 0x3d9388f8bbfb668cU,
  0xb9d3c0903e0b7476U, 0xbe04ebf8bb0efc76U, 0xbdad12813d79bb3bU, 0x3d97a0c83d2073bcU,
  0x3d457b12bdaf879bU, 0x3e6b9f3d3e494d90U, 0x3e70945bbe191579U, 0x3e80a6c5bcbe109cU,
  0xbe0f5cfaba72ed00U, 0x3e3e56e9bca57046U, 0x3e6bf686be1e5738U, 0xbc839fd6bb87aec0U,
  0xbd5ef7b6bca3aa40U, 0x3d55180e3d2960ceU, 0x3e87f294be363052U, 0xbd74c4023d883aacU,
  0xbe465761be39e074U, 0x3d0d45793c92eb32U, 0x3e27ddfe3c84e29cU, 0xbc86cce53e162a5eU,
  0x39a0ae40be5d0b54U, 0x3d51e4483d56a24eU, 0xbde73792bd140d04U, 0x3e1d9df3bd5c9ce7U,
  0xbe584fbbbe11ea3aU, 0xbb5f911e3e3c3b8dU, 0x3d177e33be561a18U, 0x3dbebdd7bd63df2aU,
  0xbe2bd1873d18266cU, 0x3df3e5643e1faaa2U, 0x3cfef3d73d8de356U, 0x3d36ca3a3ce507f7U,
  0x3d1577d1bdec30c8U, 0x3c98aa893ccef0e4U, 0x3ccac2d2be602712U, 0x3c0034b13e268c10U,
  0xbda22f823dc15780U, 0x3e30a5b4bd04ba2aU, 0x3d96b139bc9ba300U, 0x3e94c36d3e130438U,
  0x3ca54b9ebe163efdU, 0xbd5f05ed3e5c6f63U, 0x3d9366e5bd19435dU, 0x3da0b2413e2eb255U,
  0xbe6d1a51be2360d8U, 0x3dbc44453e4537abU, 0x3dbd04633b9f1ab1U, 0x3dc09dbcbd9e2ceaU,
  0x3d873a9bbda1f10aU, 0xbd03b407bd505631U, 0x3e50af69bd0c14d4U, 0xbc71687b3e0f5122U,
  0xbdf501893e3f4febU, 0x3e2e816a3e0b6579U, 0x3e1cfad8be0e5a84U, 0x3cd4c436bdeec94fU,
  0xbe5eb1a03d76049fU, 0x3deadada3e49a2ecU, 0x3d814862be22a83fU, 0x3c9e0307bd8ddbdcU,
  0x3c5b37123ddee816U, 0x3e4bfd903e08fbbeU, 0x3dfc88c5bdcc2f0fU, 0x3cefd30fbd3f2fbeU,
  0xbe80dd66bda47d99U, 0x3d1f3f88bd710464U, 0x3d771c17be71902cU, 0x3e8c0eb73c88e88eU,
  0xbd8bb31cba4f4806U, 0xbf4be38bbf208eb9U, 0xbedf09823e1bea4eU, 0xbec3ef45be428d9cU,
  0xbce1db2bbe1bd54aU, 0xbf3652a7be9e5a9dU, 0xbee36e3c3c9a2812U, 0xbe396ea6be812de5U,
  0x3c14cce23e3351b3U, 0xbebb53d6bed97e41U, 0xbe407c6e3de340e0U, 0xbea4c0c3bd2da993U,
  0xbe1382c83d3e6760U, 0xbecad656be587982U, 0xbe0122053d32aa3cU, 0xbee3df78bd380199U,
  0x3c8a40aabda346f7U, 0xbf020be4be53b0cfU, 0xbe80fa4a3d0aff34U, 0xbeb74a78be57da85U,
  0x3d7d2333bd8f559fU, 0xbf01e604be58ea13U, 0xbe2084793dcfd8c4U, 0xbef5b1ad3c52c65fU,
  0x3cab8672bc1a3f5bU, 0xbdd5472fbeb41026U, 0xbe30d97e3e0b1034U, 0xbef32267bd828bd8U,
  0xbdee9490bc9012ebU, 0xbe931f75be21ab08U, 0xbeddcb9ebc5b66e3U, 0xbeb0477ebdea1cc1U,
  0xbdaf16493dd9d0a3U, 0xbeb980f2be9fb454U, 0xbefbdcfe3c3c06ffU, 0xbee2a186be06b36dU,
  0x3d3dabbc3d09315dU, 0xbec77ee8bec349e7U, 0xbf22dab2bd1fefc9U, 0xbf391cf8bdb71c35U,
  0xbdef460a3d894860U, 0xbf24c7e5bf05dc34U, 0xbe8772623dc441caU, 0xbec51f8cbe11c509U,
  0xba1ac5aabd5296acU, 0xbf38035fbe824e6eU, 0xbed106cfbc92e169U, 0xbf2ee4e4bde7b6a4U,
  0xbdd1e03f3e0d52acU, 0xbf1fb0a9bf053815U, 0xbe96c218bcc24db7U, 0xbee258d6be186282U,
  0xbd966128bc8f0a19U, 0xbf1f8a9abf1c7ed4U, 0xbef652733d795063U, 0xbf148485bcba867bU,
  0xbd9e52523e0c6408U, 0xbf16ed26bebd70baU, 0xbebfba6a3d927ed4U, 0xbeb2c88bbe954a8aU,
  0x3d9104ed3c85f7d1U, 0xbef90888be68e183U, 0xbefa84a13c5156acU, 0xbeac6ed3be3c18c7U,
  0x3d80d5e63db0036eU, 0xbed6bd2fbdea40f1U, 0xbe9878afbd57172dU, 0xbefb1aa73d891287U,
  0x3d48c373bd3523bcU, 0xbe39f62abe811309U, 0xbe49e1f23d0d0af4U, 0xbee0bcd5be07e788U,
  0x3ca588de3e88ab2cU, 0xbefc99fcbed6f073U, 0xbe3c6dd0bd17b8acU, 0xbec05d88bd85d753U,
  0xbdb5cfa039ef0d90U, 0xbeda1c95be343c88U, 0xbf053ca43e2074a8U, 0xbf2e7dd1be85dba3U,
  0x3d2722163d544835U, 0xbedbd7a43e1b2e6bU, 0xbf0e67f63ccf4db4U, 0xbec4a21dbdf1e119U,
  0xbd834a39bc6bb4adU, 0xbe772895bd16c434U, 0xbf2c7b4f3dfa1ce6U, 0xbefbf729be96b25dU,
  0xbdae43fb3e773140U, 0x3edc235f3eb6a9e3U, 0x3e0c10bd3bb6176aU, 0x3e2d69953d840fffU,
  0x3df83c4c3d984a7eU, 0x3efb85953ecb48afU, 0x3bfaf33a3d01c1deU, 0x3d67da1c3e4b81aeU,
  0xbd58cc563e235bbdU, 0x3eeeeaa73d7a52abU, 0xbb840e2abcf5060aU, 0x3b3ce2183e1271a6U,
  0x3da9c4743e8f5ad9U, 0x3edf51eb3e6e9067U, 0x3d0f27d9bccf18ddU, 0x3e57364a3d06792bU,
  0xba26162f3e203946U, 0x3ea43e6a3e16d571U, 0x3e8e3bcb3e178c91U, 0x3e72ce0f3d0ed7edU,
  0x3e02ad8d37bad270U, 0x3e800c373c6f7795U, 0xbc50f75ebd2f5ce8U, 0x3e84347fbcbcc870U,
  0xbd850adf3dacf168U, 0x3e3a045c3e81e6ceU, 0x3dbe21e0bcbf9b07U, 0x3e8e20313ccb16c6U,
  0x3cd9e1ec3e16a6fdU, 0x3df8b7ac3b591c44U, 0x3ea4bdc03d67191fU, 0x3e1f671d3dc6c4a8U,
  0xba8552c63d421680U, 0x3dda15923d09586eU, 0x3e94df833d8ea655U, 0x3e76e433bd95ef05U,
  0xbd481da63d1dec89U, 0x3e8d41be3e457929U, 0x3ebe69e9bce02657U, 0x3ef2970c3c0df795U,
  0xbd147b933c267f76U, 0x3ece8c0b3d54be58U, 0x3d8a39cc3e3e600fU, 0x3ea0c9693d8e9110U,
  0x3e20f7b13d9f80aaU, 0x3e8250d43caea077U, 0x3e7b33f03dc81bc0U, 0x3e9839fb3e7e7fd6U,
  0x3df50d173d0af127U, 0x3eb2ddb63e7b1c59U, 0x3d90dddd3bf2f4f7U, 0x3ea69e783d8466bbU,
  0xbd04c4223cfdb237U, 0x3eec32433ea23c51U, 0x3e01ce7d3e361477U, 0x3ed09a7dbd2bef4dU,
  0x3cd063a63e08deedU, 0x3efb470a3d9d2d9dU, 0x3e3cfd063e250f38U, 0x3ea8945cbc8f5c07U,
  0x3d791bb23e012c16U, 0x3e8a7307bc5775e1U, 0x3e83636bbd01ce37U, 0x3e8bddb03bcbf137U,
  0xbd4c59543e3182eeU, 0xbba7c28b3e06110fU, 0x3e3625b43e459a1aU, 0xbb835528bcedbf94U,
  0x3b2f2df93e21bf78U, 0x3e7644f13e8b6879U, 0x3d4e46ee3c9d51d7U, 0x3e28ff07bde7c383U,
  0xbe07232d3e3ac9b2U, 0x3e82c4d93e8fe44cU, 0x3dedd2cebc4cb0d9U, 0x3edf0b343dfd8fe3U,
  0x3db8090f3e08b145U, 0x3ea91dd73e6f40b4U, 0x3e9f4a0f3dec8c96U, 0x3f026e193d3bf3d2U,
  0xbd3d8e993e35f98cU, 0x3eae56763d8137e4U, 0x3f12b37abd62e759U, 0x3ec87484bdc95068U,
  0xbd33b3153e6efeb7U, 0x3e0790fdbddc4a07U, 0x3f1a96663deb6770U, 0x3f1046283db67d72U,
  0xbdf152b9be68fa98U, 0xbf295c93bf097fd9U, 0xbec91d28bcbcb58dU, 0xbe87d122be8ba153U,
  0xbd5b3129be09848dU, 0xbf30bc8ebf007615U, 0xbebba6ee3d5aa039U, 0xbed160f1be4f2d22U,
  0x3dcfc5c4bd89b076U, 0xbf0e1b06be5961b5U, 0xbea3eafa3dd19971U, 0xbebb3cbfbdd54009U,
  0x3d1b9fc33d82f963U, 0xbf14868bbe994dd5U, 0xbeb9b6fa3db3e80eU, 0xbf12d13bbe1ffcc3U,
  0xbc5c69febbfaec50U, 0xbecdf826be297424U, 0xbe98ab8b3b99e72bU, 0xbe4da3c7bd177257U,
  0x3db579dbbdfcb24bU, 0xbeb8bffdbe91f9acU, 0xbe9b7b9cbe0024cdU, 0xbef471013d65b55aU,
  0xbc8079dbbdd563f6U, 0xbe33e4d7be78e595U, 0xbe5a0fd93e1b56f7U, 0xbe9443ecbe02d042U,
  0x3e0a59fc3e36b135U, 0xbe5eddb2be9fb25cU, 0xbee54ffb3e00f0f2U, 0xbe881a503d4542a5U,
  0x3d947ffc3c37b1c3U, 0xbed5073fbea6e233U, 0xbeec69453d9c666fU, 0xbf1bf866bcccfdf7U,
  0xbd8d905fbd0d2ba3U, 0xbeec7eb5bebf99f7U, 0xbf032945bd0ef1b8U, 0xbf11e026be66cadcU,
  0x3daa5651bd421ebeU, 0xbe7d073cbeb14201U, 0xbeb95c783e0d15d2U, 0xbeeb4a28bd1da71cU,
  0x3e091e0cbd44cc51U, 0xbed30045bed960a0U, 0xbedfc7f53d8e790dU, 0xbead5361bd57737eU,
  0x3e1092b33d09d2bfU, 0xbede8d18bed84264U, 0xbf01e2f8bd47bb36U, 0xbeedad14bd0851e2U,
  0x3c6ab1e5bd7cdebaU, 0xbebf2bdcbf00a9b2U, 0xbee1d6363e314d38U, 0xbf0f5d42be107688U,
  0x3d9b096abdeba164U, 0xbeed3fbebee7e8deU, 0xbec550613e133d43U, 0xbed2f1f8bdde78beU,
  0xbcea6f8d3de41f84U, 0xbee95376be4ed77aU, 0xbecd7a693dae4478U, 0xbe8423d63da66f20U,
  0xbc540773bd41d527U, 0xbf033990be4498d2U, 0xbec8e9b1bbd7b4deU, 0xbe94f3943d8ca4f3U,
  0xbdc1003c3dea7211U, 0xbe0fbb2dbeb22799U, 0xbec8be773d89c36eU, 0xbe690b053d03f918U,
  0x3c2e02773dc96812U, 0xbea5df89be825a2fU, 0xbe5d0ecdbd991c17U, 0xbeca009bbd0cbfa4U,
  0xbbe3824a3dc8fd62U, 0xbf002d27bea78038U, 0xbf1aa4193e0014daU, 0xbecbeb64be30fd57U,
  0xbd837bb03dfa9b13U, 0xbefde366bd675251U, 0xbf250109bd88e514U, 0xbf0ecd12be563846U,
  0x3d981a35bcfcfa06U, 0xbeebf8fdbe33e445U, 0xbf0905563db286a3U, 0xbf0aa95bbd628ca4U,
  0x3df49bbd3e8d2a12U, 0x3edd24113ecf8733U, 0x3e3eef203dbb028bU, 0x3e7cf8c23e2e8103U,
  0x3d73a7f03e0b196bU, 0x3ea0d1eb3e4f561eU, 0x3e48c3b33d84b3f2U, 0x3d81f4ca3e5ee0feU,
  0x3d420fc13ca4b131U, 0x3e7472743e610f17U, 0x3e22ea023e455724U, 0x3dcc87a23e2a18caU,
  0xbd882d043e116566U, 0x3dacdb313e835a35U, 0x3d996ef93df2190eU, 0x3e6ab3133e2b6ef2U,
  0x3e273b2fbdac2d20U, 0x3e551236bdcd3a79U, 0xbb8f01b03d221a42U, 0x3d97b2063d04c653U,
  0x3dc48c043dd7a78aU, 0x3e3cc4893dcd5082U, 0x3d22ca43bcf25e66U, 0x3e7b6d2abc6d9f92U,
  0xbd88af7b3e013ea8U, 0x3e1e318f3e0fbc09U, 0x3d80fb433e01304eU, 0x3e0551223c2ffd47U,
  0xbde5d18f3d9717baU, 0x3d963bfbbe0398aaU, 0x3e0face6bd395c33U, 0x3d17fa4b3ba378b5U,
  0x3d6e26113e00fb38U, 0x3e3c5591bbdbfb72U, 0x3eef47373db81570U, 0x3ed519b43de1dbecU,
  0xbad5156b3c1013adU, 0x3e09d2fb3ea5412aU, 0x3ea84daf3c62af02U, 0x3ee177c13e1fad02U,
  0x3893ae34bde55e68U, 0x3e8dcd033df69f0aU, 0x3e8441313e322206U, 0x3e25e8f43e159c35U,
  0x3cdff274bd8ad114U, 0x3db7a0343e5435d5U, 0xbaf8ed693dde139aU, 0x3d85f8213e1cee93U,
  0x3d2d9b593d888f9bU, 0x3d96fc853d473da4U, 0x3e106c183d0d08c4U, 0x3e2bf6f83e09f0adU,
  0xbd5bff263e21c5ccU, 0x3e87c86c3e86d015U, 0x3e1c2a743e173bffU, 0x3ea69461bce7d7ebU,
  0x3ca09f94bd136b49U, 0x3ed39ea73e74fdd5U, 0x3c6e49683cc4062cU, 0x3e95722c3e6eabc3U,
  0x3d95b43a3dcd2162U, 0x3ea3d7aebd32b621U, 0x3e1cae473d0340eeU, 0x3ca6b646bdaf6244U,
  0x3d545de03c9cb010U, 0x3e6efbd73dedeb81U, 0x3e37d1f2bc1678c3U, 0x3e505aacbbd6dd42U,
  0x3dd28f883e68ecc7U, 0x3dad9b98b9abe0ecU, 0x3da1024fbcb5c52dU, 0x3e9f1201be351216U,
  0x3c953d1e3a537502U, 0xbc3bf6aa3e009312U, 0x3dc0ba523c1f5988U, 0x3daae5a23dd61708U,
  0x3cf6120fbd91bd5cU, 0x3e6311513df76effU, 0x3dc93ac9bab891efU, 0x3ec987193d5b93dfU,
  0x3df21592be14e121U, 0x3d9fbbc43ce3967eU, 0x3ea09cc23e0b1b79U, 0x3e3b4a443d46d3faU,
  0x3d215ebf3e1af637U, 0x3e9def2b3d97e2d3U, 0x3f1d1424bd81abbfU, 0x3eb5b08a3eb6b356U,
  0x3da8d4d53e55643eU, 0x3f0975e63e795e5cU, 0x3f0675b03d84110aU, 0x3e6b5a083e692d97U,
  0x3d3154ddbd6ec37aU, 0x3ef22b1a3e815a83U, 0x3e02e5d9bbc86f19U, 0x3e76b46eba1cbc26U,
  0x3d550ef3bdc55787U, 0x3f0545db3e919e49U, 0x3e2158643dbf6841U, 0x3d9280053d21025fU,
  0x3dcbf5413e571a86U, 0x3ef62f8e3ea7d64dU, 0x3e98f48c3dd148f9U, 0x3eab1014bda39071U,
  0x3d07eeb33e12efe4U, 0x3ee57a083e106e0aU, 0x3dec4b2a3d82ea2eU, 0x3e161ef8bdc0dbeaU,
  0x3b9f3114bd126043U, 0x3efea2f03e2e9261U, 0x3e84d4713d77e115U, 0x3eceefb33dd5eef2U,
  0x3e37b719bd9ef38aU, 0x3ebcf4d03ede9488U, 0x3ecec502bb54e804U, 0x3eca9f153dc62772U,
  0x3d606fc9bd4c61b8U, 0x3ea345073d807062U, 0x3eca65d43d870ae7U, 0x3e37d5923c4137f1U,
  0xbd968ac23dbc22e5U, 0x3e9a0ab23e6c6132U, 0x3f35db17bd56487fU, 0x3ef3d7063d40a4adU,
  0x3d84ad333e56bbedU, 0x3eb9fe523ee3d0fcU, 0x3f0f5f273c02b824U, 0x3f13f6ea3d9efdb6U,
  0x3dfa95ca3dbc137bU, 0x3f16c2433eb88c32U, 0x3eea0d423d773621U, 0x3edf4f143e4c5defU,
  0xbd95203a3e4bef5cU, 0x3eef21323e8179d1U, 0x3db951873d8eb2eaU, 0x3e97ce353e944a9dU,
  0xbdaf577d3e935c61U, 0x3ee1c5053e974071U, 0x3e9949dc3bccbe18U, 0x3e5682ef3d57ea29U,
  0xbd8c68623e2ec6c9U, 0x3ee418843f0f8bc6U, 0x3e5ce7703d3d7535U, 0x3efe88333d35fc0aU,
  0x3c4ac61e3e3583c2U, 0x3f104f133e6aff98U, 0x3e45fcd13d4851aeU, 0x3edc044d3e3af6e4U,
  0xbdd1f1753dc4384aU, 0x3ee8caae3e0f75ceU, 0x3f1c65a93ba409b6U, 0x3ea5f5ee3db4d7f7U,
  0x3dc672e13dbf6eb3U, 0x3ed4a5b23dced94eU, 0x3ebdef513db0c8b2U, 0x3ea05bdabdb83203U,
  0x3d5c1e3c3e29cfaaU, 0x3eb5f11e3e3f72bdU, 0x3e79ac7dbb2d38d5U, 0x3eb57f773d970405U,
  0xbd1c46893e3644ebU, 0x3eb7326b3eb6ca9aU, 0x3ea7c19a3d124003U, 0x3ec616173e2f1d34U,
  0xbd67e17a3e18c4a7U, 0x3ebae37bbbd25777U, 0x3effeab73e22aecdU, 0x3f1731c33dd38e60U,
  0x3c597314bc29a62fU, 0x3e9553f13db266afU, 0x3f45245bbc1f9289U, 0x3f06bdafbce0e73eU,
  0x3e0e985e3db95002U, 0x3ee686e53e6611e1U, 0x3f6e846a3dc7febaU, 0x3f1c70853e981bc7U,
  0xbe14ac513e15cb97U, 0x3e2d5da73e0c75e8U, 0x3d4f31c0bd3fd2d7U, 0x3dbb9a2c3e6d97f2U,
  0x3da1c524bc815a1fU, 0xbcd343463dd3dcacU, 0x3ca4c280bc5daef0U, 0x3d8bdb603e43ff41U,
  0x3bb8b13fbd4244e6U, 0x3d8709103cb6aba5U, 0x3e2b82cbbc0b09e6U, 0x3e034840bd491839U,
  0x3cdff03b3db99cf0U, 0x3e499170bd9a7225U, 0x3c1a9cd73cfb31c0U, 0xbd9d909fbdd6ff39U,
  0x3e303b16bd81e4e8U, 0xbd51eda6bd2953e9U, 0x3cf01ff83db83cefU, 0x3e7b5aca3cf655d3U,
  0xbd1152383ddd8e5cU, 0xbd36a3003e388cc9U, 0x3e460955bd4e37f0U, 0x3daa23623dc508e3U,
  0x3da8302d3de10c93U, 0xbc4df8d83e5c40d4U, 0x3e6cf5cd3dcf48b2U, 0xbce7f5223d805f7fU,
  0x3d7e841e3e0aa16aU, 0x3e4f3a65bd9fc591U, 0x3ddc8d5d3df1a389U, 0x3e7c7adb3e51c108U,
  0xbde386073db20980U, 0x3d5c3788bd7b57d9U, 0x3ea01a873d9100faU, 0x3e8d9221bd3054bcU,
  0xbd677e953da03223U, 0x3e29e32839a2bde7U, 0x3da964d2bd9baa72U, 0x3e61200a3d9f4fecU,
  0x3d9ff0e3bb9c3efeU, 0x3e1de2543e3d1c1bU, 0x3d9b8fae3d816ec4U, 0x3de6c7483e06bb03U,
  0xbbe1accf3d890b5fU, 0x3e5d83033e49aa56U, 0xbe094d323e17cecfU, 0x3d4ae0f5bd13d94fU,
  0xbd19919e3df6913cU, 0x3e0bcf103cce9ff3U, 0x3d86385a3de2f09eU, 0xbd3316e33db21465U,
  0x3d84f93d3e4861e4U, 0x3dbf04463e4dc6a8U, 0x3d53b6a63d26aa6aU, 0x3b892b003e03f595U,
  0x3d8bdcee3d23cab0U, 0x3d2ca0033db9a6ebU, 0x3d5f036e3cacc66cU, 0x3db6b78d3cadafadU,
  0xbd6f70dc3d335968U, 0x3e1214ec3cf38e1dU, 0xbc5d14f93e61e89cU, 0xbde815ba3e32ebf5U,
  0xbca9a54ebd9e9f07U, 0x3cc178cebc2b8c7dU, 0xbd82a60abd771728U, 0x3d76310cbc2fb1ddU,
  0x3cddc0dc3deaa379U, 0x3e014caabd92797bU, 0xbcde7a253e07eb41U, 0x3e157c46bdfa015fU,
  0x3dee48c83e397c42U, 0x3d9911b33d9ff86aU, 0x3e30f7293c09acd6U, 0xbd0dd6123e315226U,
  0xbe09238e3d71679fU, 0x3e3f1b6d3e51c5a2U, 0x3bdb2d353cdfd592U, 0x3bb310e13e3fee4aU,
  0x3c6e61023d4428c9U, 0x3e896138bccd565eU, 0x3d915932bdba4d92U, 0x3d9f71673c0c35b8U,
  0xbd6bf2503d9328d8U, 0x3e207d683d8948a0U, 0x3eb5b9b33ddda43aU, 0x3ede15ff3da8c789U,
  0x3e8055dc3e5f6728U, 0xbdc59429be29e498U, 0xbcc54a5d3e8087d0U, 0xbdd6ded23d93f142U,
  0x3d6cc9933e12f013U, 0xbcf2ead13e26b973U, 0x3e0a399a3d916e83U, 0xbd701a1bbdd53cd5U,
  0x3c223b153e519a69U, 0x3e20ed173e0f653fU, 0x3c2528993ea2748bU, 0xbdc472993dd81f69U,
  0x3de29d263e108054U, 0xbbbb76893d94fec8U, 0xbdc5a4523e7e60daU, 0x3e1d174bbdbefe34U,
  0x3c0572e73e0151b3U, 0x3e3682d2bdc9d150U, 0x3dbf332b3e417826U, 0xbca7dba5be0e9bd9U,
  0x3d505bd03e5b220aU, 0x3e23328bbd1df048U, 0xbda62d6d3dfb9710U, 0x3c9e3f2a3d19db3eU,
  0x3e59d6b6bd9c1459U, 0xbc970e7ebdad6f16U, 0x3e04712e3e06b226U, 0xbdd90887bd9c981cU,
  0x3dd89e843d7d3bd5U, 0x3d2c7d8d3e000e80U, 0xbd5b24493e8da6d6U, 0xbc407ce13d4ed548U,
  0x3e6e973a3ea40340U, 0xbc4c8c8a3d61db61U, 0x3b9476993e08912dU, 0x3dce93fd3d42757cU,
  0x3e5cc3b93ddd0711U, 0x3e2ddc5abdbdf306U, 0xbe2da57b3e08d0acU, 0xbd702ae83d96e1ceU,
  0x3e90595d3ec3c0d6U, 0x3e18edb63e4a8554U, 0xbd915f8f3e457481U, 0x3e0bf4753e024b08U,
  0xb9cb918c3eb49e5fU, 0xbd9f47723df983a3U, 0x3e0d85e43df2de11U, 0x3e559059bd10f374U,
  0x3dcffed93d221262U, 0x3e10e1a73e45c202U, 0x3d230a743d18c3a9U, 0x3c99ab663df28919U,
  0x3d0aa0043e92d5ddU, 0x3dffcdeb3b230fdaU, 0xbe0027973e8ba18fU, 0xbdba86f23d67b319U,
  0x3db930f23daef133U, 0xbdea03ad3cacc199U, 0x3cf23d133ddd1615U, 0xbd8d60143e370e10U,
  0x3c9cf1ba3d7c5f20U, 0x3d8a00293d89d3d4U, 0x3d3147073e50d89eU, 0xbbc722693de222a8U,
  0x3e3911263dd3b704U, 0x3d14e2383d356b07U, 0xbdc5752f3e4574ecU, 0xbba22c593d7a216bU,
  0x3dec37793e516975U, 0x3cc95e5b3d81e71bU, 0xbd3fca733e8b1ae8U, 0xbc5e0e34bc0a7111U,
  0x3e2b145bbd09ea7cU, 0x3e03c7273ca6919bU, 0xbd83e6673d83c427U, 0x3dd772533d3738f5U,
  0x3c6f144bbcd15004U, 0xbc315a19bde4084fU, 0x3e3386a73d405e30U, 0x3e20371b3bceb9e0U,
  0xbc0fcda13e956620U, 0xbd5c726abbb8c61bU, 0x3c97ad0c3e63ec31U, 0xbd9f248d3d33cdd1U,
  0x3da641da3d5dec67U, 0xbe6d2b453a23c0c8U, 0xbd88b07f3e868767U, 0xbe4360f1be78f9aaU,
  0xbcd2a5213d25bf2bU, 0x3f338e073e9b5b84U, 0x3e4c7ac1bd18cd39U, 0x3e9d88be3cd67872U,
  0x3e16678f3e1cb881U, 0x3f1045813ec234a2U, 0x3e7cd7443e468741U, 0xbc65f8083e45b832U,
  0x3e1219833d76db80U, 0x3f19b4aa3eb9c1bcU, 0x3e86866ebd176efdU, 0x3e39d583bc95a69bU,
  0xbd09bc183d4493d6U, 0x3eaf2a983e9a0ac4U, 0x3df079a6bcca0925U, 0x3ea6d1ba3d1160fbU,
  0x3de21eb2bd67755aU, 0x3e0c173e3e19e221U, 0x3eba20bdbccb37dfU, 0x3eb75d68bdf79f93U,
  0xbd158699bbff8a9cU, 0x3eb183813dd15522U, 0x3dbed7953dec188fU, 0x3ed0d371bdb5e733U,
  0xbd0325cbbc759382U, 0x3ebf90633e9c6aedU, 0x3e87955f3e0b4061U, 0x3ecdd4d7bdc3d595U,
  0xbdcd64ee3cf57474U, 0x3e8e2f23bcb04909U, 0x3efff1683d4e7bb4U, 0x3eae008b39d74c8bU,
  0x3cf837103e2f1b4dU, 0x3ebfaf43bca17d02U, 0x3eefe3bf3c8b7353U, 0x3eefcebabd6b8034U,
  0xbdb2135f3e57240bU, 0x3ed74c3f3ec22ba9U, 0x3efaf1c03d915c97U, 0x3eab791f3e15e220U,
  0x3df589033d98ead4U, 0x3e9465293e5deadbU, 0x3dff4ff03d1e57faU, 0x3e59d54e3e8372ceU,
  0x3e14b879bccdab5aU, 0x3eb0d93c3e037502U, 0x3d607ac83e314187U, 0x3e144aa93e939e94U,
  0x3db260733e7b0b99U, 0x3ef9208c3e0ae407U, 0x3da47cbb3d8c7952U, 0x3df8faf83de66ff3U,
  0x3d552f3a3e684074U, 0x3f0887b43ec7a4eaU, 0x3dac9acc3e2705d9U, 0x3eb88f6ebd2afb5bU,
  0xbdd6da623e7331c0U, 0x3ef2b1b23e0a4ac6U, 0x3e76b81f3ddc4e3bU, 0x3e9dbd3c3e4f58abU,
  0xbdd70344bcd4bc08U, 0x3f01e2183d78534eU, 0x3ecb5d2e3e1a6423U, 0x3e233578bd117b72U,
  0xbda3c7fe3d28f18dU, 0x3e9a4f403e0cd8c6U, 0x3e227f28bcf3e5b3U, 0x3e9d111d3dcffb33U,
  0x3d028ff33c50bc48U, 0x3e6ea06f3e91c4ddU, 0x3eaa7e6cbd17ef24U, 0x3e294778bdfed06aU,
  0x3deb30f13dcc2d9aU, 0x3e6b32603ea036a5U, 0x3ed340393e3315e1U, 0x3e8fe9c23d67fe12U,
  0x3d9d1fd5bd899399U, 0x3edc656b3e09aac9U, 0x3f0260bd3cab8feaU, 0x3f10b6cfbd134ab2U,
  0x3cb13c9b3ce1dc5bU, 0x3ef3f4c03e2576f3U, 0x3ef5cabb3d80f581U, 0x3f038b873e7d7cfaU,
  0xbcc10f553d349d65U, 0x3e58d99f3d216165U, 0x3f468e5abc29bbffU, 0x3f302af93e9693a2U,
  0x3d7981e13d584fe9U, 0x3f0db4263e166deeU, 0x3e693a67bcf707fbU, 0x3d33f8493d8b712eU,
  0xba6e7569be056453U, 0x3e52cb793dd8e1b3U, 0x3d2fd8bb3c2cd0d7U, 0xbd590caf3d017eeeU,
  0x3d570d09bbb5964aU, 0x3ea161283e86355aU, 0x3e05f1313d15e7c2U, 0x3ce940a63de3328dU,
  0x3e23ec583e00816bU, 0x3e47c50f3e317179U, 0x3e0cf0f33def5f27U, 0x3e2f77b3bd812d6fU,
  0x3c9b1d933d3413a3U, 0x3d8a423fbc675ac0U, 0x3e79b52c3e004653U, 0x3e6d55593df89233U,
  0x3d3dbefabdd2b1f0U, 0x3e7fe8ef3e2ad780U, 0x3d04e1ad3de1ac4cU, 0x3e7ae648bd355011U,
  0x3ddb9d5bbc8586d3U, 0x3dfe49803d82ccd7U, 0x3d77b1723d8406f7U, 0x3e204deabd1890c9U,
  0x3d4b27e9bd622df9U, 0x3c1005e33ccc1385U, 0x3e662b383e081ccaU, 0xbc81aff43d3579d8U,
  0x3c26bc6cbd824e34U, 0x3e60964d3e035fe5U, 0x3ef7f2dabae9c92eU, 0x3ebdaf943e023fbbU,
  0x3db21039bd51ec37U, 0xbd0eeb6b3e4decd0U, 0x3e0ef61b3bc3c205U, 0x3e3b82eebc059406U,
  0xbd5631a33c2b945bU, 0x3e29205d3d0fda00U, 0x3e1a6c483d865b3fU, 0xbd5dcf3f3ea06e88U,
  0x3d3415413d36dd21U, 0x3ea40810bd935e14U, 0xbe3aba11bd3efcbbU, 0xbe1ef5793e2d4edbU,
  0x3df11c173e81e1c7U, 0x3e3fb4743e59d806U, 0x3d9dc7d0bd2406f1U, 0x3e6f6a79bd178e31U,
  0xbc81282a3e1a4d91U, 0x3e0697423dc5a206U, 0x3de76b433df8f463U, 0x3de4bea7bd00451cU,
  0xbd72e4b13e0ee223U, 0x3e6fe84d3dd8673cU, 0x3b317604bbf2aefdU, 0x3e64056a3cb0f219U,
  0x3e00ea7e3debb353U, 0x3eab79f1bd9c1e6cU, 0x3e85352a3dddecc3U, 0xbd0e4a3f3df61fc5U,
  0x3e223461bd9713b4U, 0x3dc044863e282f6eU, 0x3e30942b3daba1daU, 0xbd6d26f93d24789bU,
  0x3d15c658bd060ca7U, 0x3e5d2286bdfa2aeaU, 0x3e452f023dbb9846U, 0x3cdc9e97bd3079b5U,
  0x3decc7443c97f861U, 0x3deb95523df6764aU, 0x3d8f4c953dacd686U, 0x3e1b2f543db92425U,
  0x3d924ce23cb490c4U, 0x3e55ffa6bda7aa41U, 0x3e91159b3e1ed87eU, 0x3ecd4af43dcf17b8U,
  0xbda8dfe53dca2b5fU, 0x3e9ce2d5bca7df97U, 0x3f03a9c53e059e4aU, 0x3ec65eb53e225e22U,
  0xbe02df073da13517U, 0x3e932eba3e7cfa96U, 0x3eea67603cf2c77bU, 0x3f0f2ebf3e9600ecU,
  0x3d9aa6c03d169134U, 0xbd83fe16be0493f0U, 0xbe35dfa43ddae9f8U, 0x3e07ce4d3dc7edb8U,
  0x3e4b6c493e0fb662U, 0xbe3146dabd4b3da7U, 0xbd8d8faf3e262a0eU, 0x3d1af85d3dd8ef98U,
  0x3e7ea62e3e41d473U, 0xbbde85833da27091U, 0x3e141fd23e586309U, 0x3e34554e3d0ab644U,
  0x3e83a0263dde45c2U, 0xbcd6bbed3dd8667eU, 0xbe04943f3ea19a38U, 0xbb948c453db32cc9U,
  0x3e40fd423dde18e0U, 0xbbb6d9edbb34a70aU, 0x3d6d329f3e6d77aaU, 0x3e0f87793d80fb10U,
  0x3e0e85103eab9522U, 0xbdcdd7a83de87872U, 0x3bb9afe13e032aa8U, 0xbe041df13de4bddaU,
  0x3e8244d93dfbdb6dU, 0xbd5d7edd3db11038U, 0xbcdf417b3de68073U, 0xbde0a926bda0612dU,
  0x3e99b0c53e8a6f41U, 0xbcd77e573df9ee53U, 0xbe131e0d3e86e18cU, 0xbddda3c43d50dc11U,
  0x3df70e403da15138U, 0xbddf287f3e2fdea5U, 0xbe7478293e7a0a4dU, 0xbdee5d1cbdaf2169U,
  0x3d8bd94f3e7aa9f9U, 0x3e26b8eabd09a0e3U, 0xbdc514bf3db0f371U, 0xbdb586e73be04d38U,
  0x3e8d4d873e26b9d2U, 0xbded09debcd15b45U, 0x3de06d4f3e54eacfU, 0xbc3853203e01d941U,
  0x3e6a1a143dd88532U, 0xbbaba91e3c7b39f4U, 0x3e1248813e6b04b6U, 0x3dce3940bd62becdU,
  0x3d6dfeef3e628c6aU, 0x3d9c70f8bd4cb669U, 0x3dcf5fe33cd2d551U, 0xbd6778a83decc829U,
  0x3e927d6b3e52e788U, 0xbd8d85113e137893U, 0xbe093fa13d8f24fcU, 0xbe2b23683d562382U,
  0x3e4f585b3cebe6ecU, 0x3d76c6bcbd3f8dafU, 0xbe35750f3dc22b92U, 0x3c066a953e08e993U,
  0x3e736b013e9c33acU, 0xbd911eabbdd46836U, 0xbdfb08863e5382b1U, 0x3e1e21e33d9ba00eU,
  0x3dfa8d743d81a41bU, 0x3d031e893d139677U, 0xbd8c8e603c90046cU, 0xbdde92da3dd09a7fU,
  0x3e0673603e943493U, 0xbdba5e863c7d2991U, 0xbca2b6063eac3937U, 0xbdf625753d4b42feU,
  0x3df8a66f3e3cc447U, 0x3ca95c90bc16810bU, 0xbd9848f73e9d467eU, 0x3dd018903d84e6c8U,
  0x3dd93f163e82b301U, 0xbdd09d403dddd9a3U, 0xbdbee3703e8d5851U, 0xbd962f1b3e10b1d2U,
  0x3d96f2183e99ffa6U, 0xbe584441bb0801f2U, 0xbe37698c3e56a03aU, 0xbd899671bbd28245U,
  0x3e07d9773cbd0eceU, 0xbe6b894dbe9bf9caU, 0xbe06ced83ec5a84eU, 0xbdf9062cbe701c13U,
  0x3dd24efb3c8cd967U, 0x3f13a6f93ef0d7c0U, 0x3eacc5f6bb58dc8eU, 0x3ed823ed3e466626U,
  0xbd9afbbe3dbc79d1U, 0x3f0edcab3e1c4987U, 0x3eb467c63e2bf3dbU, 0x3c0ded7f3e8896c0U,
  0x3dd226653cd8e8b0U, 0x3eb579f43e5fa0e4U, 0x3de217623cc7d25dU, 0x3d93d6b5bc8ab7feU,
  0x3b907a3d3cb2deb2U, 0x3ec5946b3e015833U, 0x3d98328d3dcc82f1U, 0x3e5f33a1bd065c36U,
  0x3c838993bb644bd4U, 0x3ebc9cff3db40e74U, 0x3dedff98bcb45c09U, 0x3dfb0200bdb45cd1U,
  0x3daee6ed3e239dc8U, 0x3ee03eab3e7187e7U, 0x3eaf09763dc09798U, 0x3eccbf123dfb7e78U,
  0xbda709dfbd71e1c1U, 0x3e9509fc3e2f847fU, 0x3e8d42943d25190dU, 0x3e94bab83da8a902U,
  0x3d9244e23dde6638U, 0x3ecd0e523e48ddb4U, 0x3ea4dc923c19f807U, 0x3ece31febdaaf5d1U,
  0x3dd889cd3c81a353U, 0x3eb8590d3e0d62c0U, 0x3f144052bd495a1bU, 0x3ebcf84e3e5858b7U,
  0x3d8c34ad3e8b3375U, 0x3e88cc713edce173U, 0x3f0eb7423e149ca8U, 0x3ee2cb553dd58508U,
  0xbd467e143e0abb95U, 0x3ec833703e8f768dU, 0x3ec962f43db7d7edU, 0x3e74b4d83d9a0138U,
  0x3d8ae15f3e641d75U, 0x3ea0cee53e16d5d4U, 0x3cb3bc263dc6a500U, 0x3e1b32c73d99f614U,
  0xbd6e2ce23d0fa621U, 0x3ed4504f3db17a24U, 0x3e424ab3bb9460aaU, 0x3ebc39d83dca7a12U,
  0xbd41f07ebb7afe63U, 0x3f18d5363ee1c3d8U, 0x3e0af4fcbcb85112U, 0x3e6c55363e459884U,
  0xbd715e093d3059c7U, 0x3e9e5ee53e8ce17fU, 0x3e69bb6a3e2bd80dU, 0x3e0a87823e3c861aU,
  0x3db6eeba3dc157deU, 0x3eb78d303e5f8d76U, 0x3eb545f63e0ff3b6U, 0x3e4c9fb4bdf6c8c9U,
  0x3e000e9b3e08d8e4U, 0x3eb061023e3b0647U, 0x3ec3a984bc0f20c3U, 0x3e974a82be05f47dU,
  0x3c2d36183e6bfcf2U, 0x3e96aeeb3daaffe4U, 0x3e3e869f3d1c4f2bU, 0x3e6d0cff3d1269f0U,
  0x3d84d4c43d24927cU, 0x3e24f7f13d9cd41cU, 0x3e5535b73e2b2318U, 0x3e9011e83e1e2741U,
  0x39fbda053e4b12deU, 0x3ec889263da1163fU, 0x3f074d2f3db2a4e0U, 0x3eb81f52bbd786eeU,
  0xbcffabd43e27c304U, 0x3e93504d3c1f4a99U, 0x3f3c6e00bdeed693U, 0x3f0826363e81017eU,
  0xbdb19cd03e2c4b20U, 0x3e5b1c883e528005U, 0x3f14b5a4baf6f400U, 0x3f12dc463e3f14acU,
  0x3d7046cc3e70ade0U, 0x3edef2673e952837U, 0x3ecb32cf3e15f373U, 0x3e5e34c83e3393cfU,
  0xbd246d923df459f6U, 0x3eb1b8b33e2df85dU, 0x3e550e693be0c87cU, 0xbd12f2c33e3bf323U,
  0x3d76496f3d139147U, 0x3e90dc5a3e108d6eU, 0x3e771a533df28538U, 0x3d7e41673e436a5eU,
  0x3dbb5700bcd3c91fU, 0x3e9803953e399199U, 0x3e5587e83bd23a50U, 0x3e030f0f3e364597U,
  0x3abb3ba4be037b2fU, 0x3dbbb31b3e6917b6U, 0x3e6ff0d83ccfb8b6U, 0x3dbe1a693d01db28U,
  0xbcf7f817bdd54551U, 0x3dcd15f43df2797eU, 0x3e05b48d3d23981bU, 0x3e869d0b3d3cc1b0U,
  0x3c108d22be1b31e7U, 0x3da75e903e1987cdU, 0xbb620e893c8fe0c6U, 0x3e23e300bd9a039eU,
  0xbdbb1d933dcba1a7U, 0x3e8aced9bdda6084U, 0x3e7995b83da90aceU, 0x3e1b4e8ebd9e1ceaU,
  0x3df7076f3da4eb22U, 0x3e62c5053dd0292fU, 0x3ed076a53e03ae3bU, 0x3e9571353dcb21e1U,
  0x3cb722743d5af54fU, 0x3ea404d93e9603f6U, 0x3ef8199f3b812554U, 0x3ef4e00cbc9823afU,
  0xbd8cf9a03d1571c2U, 0x3e8ecedd3e373531U, 0x3dea005f3d54a26fU, 0x3e92ebb43e042c0eU,
  0x3e1e1403bce6b2ceU, 0x3ec6a521bba69944U, 0x3c377f8b3e487d08U, 0x3da7210b3d302d19U,
  0x3d2d0db13e82d2faU, 0x3e9dfa4e3e342487U, 0x3e33772d3e163dcaU, 0x3e94d9b03e19ef78U,
  0xbd0864d33e23d257U, 0x3ec209293ec362f2U, 0x3dcde78f3e0f0f9fU, 0x3e948543bd4c4fd2U,
  0x3daa5a2b3e41ac1aU, 0x3e8e5a1f3de41fabU, 0x3e430d233d20e03fU, 0x3eb9a11e3d6f2609U,
  0x3d91fb943d8cc815U, 0x3eef71793e6d766dU, 0x3ebf960dbb2a1759U, 0x3e88c1ec3c72da25U,
  0xbd53326c3e36667cU, 0x3e3931333e2fd55aU, 0x3e1de9933d2ca35cU, 0x3e50a41b3d8e39bbU,
  0x3d3f2b543e43f36eU, 0x3e9ada773e4df645U, 0x3e4593733d17618cU, 0x3ea7de99bdc3f963U,
  0x3d7655073dc25f31U, 0x3eaf8f9b3e5e00eaU, 0x3e9ab62b3e17d027U, 0x3e23c498bd471c73U,
  0x3df8da04bdcd0317U, 0x3e90e8163c340f36U, 0x3e9c2b1dbcf5c231U, 0x3f01d2ff3d8014a5U,
  0xbda8395f3d6dcd9cU, 0x3e5210a0bd841001U, 0x3f0dd7713d9b47acU, 0x3e83fbf73b4772ccU,
  0x3e05705b3d79a8f9U, 0x3eae112b3eb67e78U, 0x3f21c35ebd9fe4cfU, 0x3f28c9bc3e0fd8e9U,
  0x3d60400bbdac90a4U, 0xbf2f7bc7bf10ec31U, 0xbee7118a3deef61bU, 0xbe985bf1be91ff77U,
  0x3dab04f73d52a151U, 0xbf14d233bf005526U, 0xbf0f45623d28c404U, 0xbef1cbefbe18706aU,
  0x3c942a843e40b567U, 0xbef73d75bebbeca3U, 0xbef7df2e3d4d18fcU, 0xbebb79583cfc4c5cU,
  0x3d6ee655bd8e7c02U, 0xbf0d40d5bec66eaaU, 0xbeeaf9bfbdc131cdU, 0xbeb9a7ffbdb2cbafU,
  0x3d0c23cd3c194bd7U, 0xbf0f56ffbeae5eccU, 0xbeb2640d3dcef7bcU, 0xbe5768dbbe19d68bU,
  0x3c605d463de16cd3U, 0xbea0b46ebed250c4U, 0xbed5eb8d3d9c03f7U, 0xbf1047543dd068d1U,
  0x3c07f80d3ca1ea8fU, 0xbe6988d2bece4e98U, 0xbe8bcd633cac0765U, 0xbf19a181bd7ededaU,
  0xbda085543d3a416eU, 0xbec3aa7dbe9348cfU, 0xbe9f58be3d81d949U, 0xbf081be93da67349U,
  0x3cf306703cabd912U, 0xbec65b88be76df5dU, 0xbf55f0f5bd59d9c5U, 0xbf1641b6be17af89U,
  0x3d24fa713d29c25dU, 0xbf0c5449bf026c36U, 0xbf3d11a03ddc0f82U, 0xbf2e1f50be176efbU,
  0xbd13dcd2bcc93268U, 0xbf07afe0bee16330U, 0xbec399243e2e924bU, 0xbee82ef3bdc411bbU,
  0x3da55c89bb39903cU, 0xbeefed38be9eb9c4U, 0xbeebe49f3e375771U, 0xbf0149f6bdc38eaaU,
  0x3c91224f3cea8a7dU, 0xbf1d70a3bea8cd5aU, 0xbf13d1a83cdd059bU, 0xbef48501bd8b72d9U,
  0xbd7ee35abc8c769cU, 0xbf1a3f7bbeb686f3U, 0xbedc58eb3dc621f9U, 0xbf293d53bbff9685U,
  0xbd35b3873d8d8b86U, 0xbef43d79bee9ea44U, 0xbed14cbfbd60fea4U, 0xbf082190be49c60eU,
  0x3e0f83a53e08ab0dU, 0xbf0a1f0fbec84dabU, 0xbeec9f2b3daa35d7U, 0xbf20d3b5be5c6b83U,
  0xbddf9f5a3e0ed15dU, 0xbea6dc8bbeb7cb45U, 0xbeee81543d7d13c9U, 0xbe90876dbdcd773dU,
  0x3cb7c4933da34509U, 0xbec09f89be4967cdU, 0xbeb313e83e1d8206U, 0xbeffa6babc74bc46U,
  0x3a399bc33e707bbfU, 0xbf0e9cfcbe48cff4U, 0xbef3918c3de3bc1cU, 0xbf0bf001bdd051b1U,
  0xbca12a35bd3c47c6U, 0xbf05a6d5becf68e1U, 0xbeb23bcb3e053b26U, 0xbf08f0233d20945bU,
  0xbd7d48a4bc31d910U, 0xbf03c8d7bc2368abU, 0xbf30fc853c184a04U, 0xbeac324c3ce6d5eeU,
  0xba0e4fb03cc5b3cdU, 0xbebb9c66be877d1dU, 0xbf52b9f13d2892a2U, 0xbf32fb99be28433cU,
  0xbd7d14283d0b390eU, 0x3e30b6993dd2508fU, 0x3ea22e72bdea579dU, 0x3e50d1ef3ca5da2bU,
  0xbcf379a33cb59c76U, 0x3e0663963e2bbde4U, 0x3dde397dbe243056U, 0x3e0bdfe23e47e267U,
  0xbe34d6b93da2b577U, 0xbc62dd5b3dd6c4beU, 0xbd0c43d2be5d018cU, 0x3e0272e73e49e61cU,
  0xbe2d8503bc51c3c6U, 0xbd0c3f8d3e5d587dU, 0x3e4f5e8fbd06ed4eU, 0x3e5b24703e34727cU,
  0xbd36b60d3aaf5530U, 0x3d2f6e7f3e78bf5cU, 0x3d80a5c7be759e56U, 0xbd1755d63d90985cU,
  0xbd8b65e83d7ecb38U, 0x3e46b0333db8f857U, 0x3c420ebdbea09ce0U, 0xbd1573d73cce1f90U,
  0xbe7c1f003d71b45aU, 0x3d96d7eb3dc363fcU, 0x3e21ab15bdee987cU, 0x3dec20de3d8b34b9U,
  0xbe9ad710bd4eacc6U, 0x3d46a5243e03372cU, 0x3dcba975bd9c8820U, 0x3e8ee1e8bd09a95dU,
  0xbe338572be1670f0U, 0x3d6abc0cbc3f32eeU, 0x3e8de444be1cd07aU, 0x3b9dc2f8bc539ba5U,
  0xbd55e122bcafbcf3U, 0x3e0e46373d346f61U, 0x3d917beabe387c9cU, 0x3e950cab3cd8cfdeU,
  0xbe859df1bb6adff7U, 0x3e7aa295bc4bbc47U, 0xbca933983c3dbbbcU, 0xbc8e50a43dc3c2bdU,
  0x3c308fe1be63cf53U, 0x3ceb8f033e63a526U, 0x3b3bbbd1bd5f25faU, 0x3e14b0bc3dcef741U,
  0x3c2eab36be05d26dU, 0x3e8eb81b3d1390dcU, 0x3e269fb5bddf3119U, 0xbcaea24c3d6353bdU,
  0xbdab7d69bd824643U, 0x3e0041b63e0d0975U, 0x3e1131eabdf9189dU, 0x3e02f5b83d8ed8ddU,
  0xbe368e33bce3d4e5U, 0x3db7370abd437a05U, 0x3dfbd836be0b5f54U, 0x3dc6c25c3da7e02fU,
  0xbe91415ebddce2c6U, 0xbc2064b83e529b38U, 0x3bea6d11be2e34f6U, 0x3dbf5ec73def9f55U,
  0xbe4762bebe5906b1U, 0x3e9026393e2f64b9U, 0x3e4fa305bbd41b77U, 0x3d8212523e24dd84U,
  0xbd55a871bdb2465cU, 0x3da7adc53e4cae83U, 0x3d17f517be5b1ab1U, 0x3e8cce933e3243b4U,
  0xbe90eb9d3e06f302U, 0x3e68302a3d8523bcU, 0x3dd93016bcf1787fU, 0x3e016eb73e1bc234U,
  0xbe8428dabd7853dbU, 0x3e4089a53e449a51U, 0x3e529742be8014c8U, 0x3e6ca8cb3e1ab0d9U,
  0xbe26e8083d0633b3U, 0x3d3ba0ef3a9a2cdcU, 0x3dd693debe459f16U, 0x3e8dabc3bd4b7c8bU,
  0xbe83aa40be3fd6fcU, 0xbddbefdabdd04174U, 0x3df0ccc7bdc9c4b9U, 0x3e77fd02bd8f3e3cU,
  0x3e20a07bbdb28e9eU, 0x3b66f7c83d906c28U, 0x3d580a1c3dc6d1fbU, 0xbd4044363d81893cU,
  0x3d23ee1d3c8e0e86U, 0xbdffb6d13d0a9059U, 0xbc32a998bdfdf896U, 0x3da7aaec3e255351U,
  0xbd24dd38bd8817dfU, 0xbdbf70d53bf09beeU, 0x3da792a4be24f364U, 0xbcf69aec3dc55522U,
  0xbd99e41bbceb0804U, 0xbe8815283ddbc5a7U, 0xbe018be73d955091U, 0xbdf1ca84bc327384U,
  0x3dfdfc70be388f42U, 0xbe5c2fe1bccdf4edU, 0xbd6fff19be14f5c1U, 0xbb30043cbdcb00f1U,
  0x3d2cd02ebdc1757fU, 0xbd10cc46bc672128U, 0xbd46052ebe06a9a2U, 0x3e4491f3bdcde490U,
  0xbe668c9bbd8a50d2U, 0xbd870403bd3d5ab7U, 0xbdd6612bbe093d93U, 0xbd6507f0bd1b7525U,
  0xbd7b88ffbbe5f9e3U, 0x3e924168bdb20211U, 0xbdc5f739baa6d072U, 0x3d826924bd691034U,
  0xbc355a2a3c7bfbb7U, 0x3d4c563b3d617b61U, 0xbe6c63a2bc93da22U, 0xbd9a78c93db729a2U,
  0x3e11307ebded2b86U, 0xbd9e6afdbd8766bdU, 0x3e309569be23900bU, 0xbe192fd43d3b93ccU,
  0x3c88a8e93d7605c5U, 0xbd1d3a34be442934U, 0xbe5c4048bd835fd4U, 0xbd1d01333d2e1ed6U,
  0x3db4b1bebdf2696cU, 0x3d4c619cbcadb289U, 0xbcf50b81bcc58ec2U, 0xbe88c72abdd59918U,
  0x3e06a529bd53f155U, 0x3db73ad33d256cafU, 0xbaf423e8bd1c8393U, 0x3d4945fa3d62eed9U,
  0xbc372e32bd0b55a6U, 0xbe15e260be236747U, 0x3db768f83d72615cU, 0x3c69d71bbe0534caU,
  0x3d4ced1bbe273ed9U, 0xbdab2f79bcb63f53U, 0x3cb9fd1e3b4c28d2U, 0x3e3c72d03d9de7a8U,
  0xbdd5259dbda19017U, 0x3e1926013e134162U, 0x3d8a7137be1c0c8dU, 0x3c3fd2e2bd990504U,
  0xbe5678f53d806d2cU, 0x3e93fce63e084b31U, 0xbe46c83abe4e934aU, 0x3e14b47fbcbca1e0U,
  0x3d95a80dbd3ba077U, 0x3e89664cbe05c6f9U, 0x3e08e55bbd158aadU, 0xbdbe8f4ebca1befcU,
  0xbde2c79d3dbbc934U, 0x3d9b279d3d897394U, 0xbe0f9f9d3de106d0U, 0xbe0705b8bcebebdcU,
  0x3d9f53cfbdb97a7dU, 0x3e6a1f6abd9857daU, 0x3da257f43dadca96U, 0x3dba21f43d8fee2dU,
  0x3d399f173d6f2967U, 0x3d5101673e7c51b1U, 0xbe4c877bbd9f3343U, 0xbc255a8bbda6e2a8U,
  0x3c9149133d82aa7eU, 0xbdbfc20cbd49e133U, 0xbdc570953ceb6576U, 0x3df589e33d799163U,
  0x3aae39b23dc9ed33U, 0x3eca8cab3ea8c228U, 0x3ea04ae53d29abdcU, 0x3df8759e3dc9a3deU,
  0x3e1ae7c83cef0210U, 0x3ec40c793e8ce199U, 0x3e5473983d2a1e68U, 0x3de1f0773e0ed785U,
  0xbcb7c0ad3e0573f0U, 0x3ea4cf3d3dca2e9cU, 0x3e3c7b2d3c62092bU, 0xbd49a4f3bcbc1f4fU,
  0xbdacc0893d2aa9aeU, 0x3eaee47e3e127460U, 0x3e0169a33e1a0022U, 0x3e286921bd7e59feU,
  0xbd5301bb3d665bdbU, 0x3dbc1367bd832a54U, 0x3e494aed3d5d3aa0U, 0x3e8a1a7fbddbb122U,
  0x3e0b94373cc8ed56U, 0x3e7413113e4ae20aU, 0x3cbf81dabcbdd793U, 0x3d90f468bd106283U,
  0x3e10b8483cf1fbd3U, 0x3db2588b3c8db5c4U, 0x3e317d4c3e233ba7U, 0x3e8ec6ecbd3b10e3U,
  0x3dbb07d0bde7d48dU, 0x3c9c35cfbe1ad732U, 0x3e90b8293dadb892U, 0x3e353f603e665d06U,
  0x3d755ec6bd9364cbU, 0x3e81d2843da9edf7U, 0x3eedee24bd00b3f0U, 0x3e81110a3e377fd6U,
  0x3cf6ae623e0f6cb1U, 0x3d7661b93e0fa301U, 0x3e4fecb4bd438da4U, 0x3efa8cae3df8e3d0U,
  0xbd4e7dc43d90e3f1U, 0x3e6aae483e59380fU, 0x3e94d60fbcf7d4c1U, 0x3e9a24b83e36f336U,
  0x3d1485d2bc8dc694U, 0x3eb9fcaf3dfa3d63U, 0xbcd5b8653dbaf229U, 0x3e00440e3e60fd34U,
  0x3d5c35e73e88e8b7U, 0x3ec325f73d551ed5U, 0x3a48d54e3c05b31cU, 0x3e94c643bd7972f4U,
  0x3e042da33e2476a0U, 0x3e83794c3ec9cba8U, 0x3cf233973d7425cfU, 0x3ea77fcd3dd10754U,
  0x3df497993d97a9eeU, 0x3ed2752c3d84b8c6U, 0x3e4e4e4a3d676c6dU, 0x3e5bc2093e87443bU,
  0xba1d78593e00df82U, 0x3e6eef18bd91631bU, 0x3e4a653f3e3c5527U, 0x3e171cd53dba1f25U,
  0x3d0d52e2bd99edd6U, 0x3e5651643e1f68c3U, 0x3e0568f1bcab96ecU, 0x3d60237bbdc53066U,
  0x3e2273d43b938917U, 0x3e5948473e21baf7U, 0x3e5519153d7bd26dU, 0x3e41cbf33db122ccU,
  0x3d79e4debdffb2d4U, 0x3cf2c1e43d0162d2U, 0x3dbed1893cd6c69aU, 0x3eb8ee633d082ed1U,
  0xbd61cc09bde6ceefU, 0x3e4db1c3bd9628b6U, 0x3ed2fa313d9a7899U, 0x3ec781e3bcfd2670U,
  0xbcf01cb53cef9e5aU, 0x3ddbe125bd40f2ddU, 0x3f1e0c043df4a487U, 0x3e89846b3dbdab00U,
  0xb9f639e63e448e05U, 0x3e86deb63e9e6a6eU, 0x3f06405ebc351500U, 0x3ebed7943e2ff5c6U,
  0xbc7d31fd3e90ef42U, 0x3edeafbf3e99c01bU, 0x3efcf877bd95e67aU, 0x3ebbf6bd3e20099dU,
  0x3e27dea23da6d432U, 0x3f0d43a53eb1e103U, 0x3e86410fbcc8a0a3U, 0x3e4ceb5f3dee48b3U,
  0x3d7d9673bd0d9772U, 0x3e93a6293e198017U, 0x3ea49effbd548d94U, 0x3e84c5213e30d557U,
  0x3d41a6a939c7bd78U, 0x3ef0e8953d6bf7b9U, 0x3e0d23cc3ccfe2e9U, 0x3eba3d8ebdc979adU,
  0x3db9c6953e2e3779U, 0x3e7ae63e3e56d772U, 0x3e4f081b3d2094d2U, 0x3dd6c13d3de42d3eU,
  0x3c54ddb3bd93487aU, 0x3eae462a3d9be794U, 0x3eaebc3d3e3900a2U, 0x3e7dccfd3d8c6909U,
  0x3dd99955bcfcfb04U, 0x3ea1f3703ecb74a8U, 0x3e5fa212bcc858a7U, 0x3ec03325be113c20U,
  0x3cadc8bf3c9fd9aeU, 0x3ec3d886bddf0e91U, 0x3ef405ae3e0c7e62U, 0x3ea86982bd99648eU,
  0xbd00ba4ebcdb4ad7U, 0x3e51ee533e1e8ba6U, 0x3f012b213d6101caU, 0x3ee251f33e596a53U,
  0x3da6c7a23e96895cU, 0x3e849da73e2c9408U, 0x3f02893e3d9b8d94U, 0x3ee1ec94b9e78673U,
  0xbc9e48983cca263dU, 0x3eea39d63e88bcd9U, 0x3e77ca233de9395dU, 0x3e4207b93e92859dU,
  0xbdd2ff8e3ddb13c4U, 0x3ece11e63e8debceU, 0x3d9ccc78bcf088afU, 0x3d97cfaabc418c27U,
  0x3d9c802b3d52506fU, 0x3ee062c23e93aa88U, 0x3dcaecf23e0aa093U, 0x3e16e84cbde1a080U,
  0xbcdabc903e5fe405U, 0x3ee7e3523ee83088U, 0x3e5afbe8bd90f995U, 0x3eb2921d3e074cacU,
  0xbdfccdf23d12e82dU, 0x3edbae193ea3da75U, 0x3e2a2e063e0c8facU, 0x3e4cab923de294a1U,
  0xbc685481bc805108U, 0x3ee973d13e88b4fcU, 0x3ef37fa2bd0be6afU, 0x3df601663cd58ce1U,
  0x3d253b1c3cf881f7U, 0x3e7fdb053e795f71U, 0x3e6fe3923e342104U, 0x3e12cedb3d8a19abU,
  0x3e4ef6e73dea2b5fU, 0x3e9b54613d9257fdU, 0x3e729fd1bd135490U, 0x3e4c87613d1643f1U,
  0x3d531a753e299c12U, 0x3ec50bd33d6f6abeU, 0x3eb9fe143dd104bcU, 0x3f02558b3d6b2cafU,
  0x3da17dc3bd92a8aaU, 0x3ea452153dd26b0bU, 0x3ea1dc2abd153216U, 0x3effc0073a9a2e64U,
  0x3ddfafddbd9cc72dU, 0x3e81bb84bddced62U, 0x3f32ecdfbdcbf58aU, 0x3e8aa3e13e3c6c38U,
  0x3d1129b13dfd4442U, 0x3ecdd85d3e833d54U, 0x3f524d463de6333dU, 0x3f36dcae3d3eb987U,
  0x3dccb9b0be54eb8bU, 0xbf1c2cb5bed93a8eU, 0xbec8e1d73c0cffe1U, 0xbeb0b883bdce11fbU,
  0x3dd37c46bd8f4d28U, 0xbebf6509bea78e38U, 0xbd5ee3b03d998950U, 0xbb7e7d51be8abb8aU,
  0xbd0386253d5fde0eU, 0xbed2707fbee08179U, 0xbe0a77943c847bf1U, 0xbe340509be41aee8U,
  0x3d206a543d1ca61dU, 0xbeb12d433cf85390U, 0xbe884337bc70612cU, 0xbdf8be34bce0eacaU,
  0x3e223fd93db14880U, 0xbdb51427bd896f7fU, 0x3d1eb3dabdbffb68U, 0xbe2781533d85a86fU,
  0x3dac5ee13de53397U, 0xbeaa89debe765b38U, 0xbcdc6edc3de5f679U, 0xbdf9c63bbe0e3ed1U,
  0x3d9484d8bc4785bdU, 0xbe8e4ff2be278b31U, 0xbde147d3bdfc8f5cU, 0xbe11af01be4304cdU,
  0x3aaab018bd3ca8ccU, 0xbe36bcb6bda8e94fU, 0xbe4e3663be0c3e39U, 0xbe0cf5a8bdece57aU,
  0xbdeeac44bcf9bdadU, 0x3d9caa58be88d6f6U, 0xbf1de0f0bd0b8c71U, 0xbec2c032be62f1fdU,
  0x3dfed99fbe1c7016U, 0xbe4e5658bdc0c823U, 0xbec2bb1a3d7263acU, 0xbf0ac0adbe385c95U,
  0x3e2cffcabe038171U, 0xbd2b017abee790f4U, 0xbd00ec4cbde75454U, 0xbe70899fbeb2aab1U,
  0x3de065c4bb8f3d57U, 0xbe9851e9be73d2dfU, 0xbe159e763dbec1dcU, 0xbef38ef0be1ebfc8U,
  0xbcea603f3d1a8775U, 0xbeaa8f31be9d9f0bU, 0xbed514603e05b341U, 0xbe90d975bd173275U,
  0xbdee5f183d5d82f6U, 0xbe74242cbe48a6b1U, 0xbec070223e22ab3aU, 0xbef1fe79be811d64U,
  0xbda5c86cbd768884U, 0xbe8a61a9be9cc5feU, 0xbe3b7193bddc078aU, 0xbe983e5dbe029d93U,
  0x3dc70e683dd29b15U, 0xbef64f73bea34ca8U, 0xbea546ec3d0cdbd9U, 0xbdff8488bdfde0d3U,
  0x3e1333ed3d397a74U, 0xbe90584fbcf2f904U, 0xbe95888e3c252c6dU, 0xbe86b7653d6a7f98U,
  0x3d635408bd5ca2ecU, 0xbe0475fc3d8d4c8cU, 0xbe81cf24bd7bba53U, 0xbe6847ca3db98872U,
  0x3e544f913e326a5eU, 0xbea85cd1be74e227U, 0xbe865c2dbcbc6c1eU, 0xbe90c9a1bda55317U,
  0x3db09c453cb2a08dU, 0xbda3eaf1be11af52U, 0xbe87d884bd85f1ecU, 0xbf070d58bd820291U,
  0xbdeed6a5bbd6bc0cU, 0xbe13dd3a3dc92180U, 0xbe814f3c3cacd877U, 0xbe857ee83d33e9d2U,
  0x3e07c2153bb5fe7dU, 0xbd28c46f3e5a6b0dU, 0xbefbae013d3185e5U, 0xbef62c72bcd326d3U,
  0xbe14ec7fbdff346aU, 0x3ea7b6673eb47f58U, 0x3dfc22a9bdb1b661U, 0x3e6dddfa3e7f1acfU,
  0xbe8e4833bdac7bd8U, 0x3e64c8893cea3815U, 0x3ded4fc6be750493U, 0xbd14b10f3bfd6537U,
  0xbe0d65adbd0effceU, 0x3e6fba163dc1c124U, 0x3e138891be8c854cU, 0x3b2e1be83c716de6U,
  0xbe0901a6bc382fc0U, 0x3de8a1903dd7e2c0U, 0x3de55740bd95cb21U, 0x3dde41473e1e4961U,
  0xbd67d82dbda4d66eU, 0x3e0883113e03c037U, 0x3e03d0fbbe85ad07U, 0x3c71d9673e1c9671U,
  0xbeaccd26bded134bU, 0x3d26d6673e9a291eU, 0x3e450e8ebd8f3eb5U, 0x3e9772c33dd098c2U,
  0xbe714d99baffe242U, 0x3de960423dd81266U, 0x3d0e16aebd814e89U, 0x3e74a7ac3c8c7f5eU,
  0xbdfc3a2cbde3e042U, 0xbc85b6733c81d956U, 0x3e4423babe0b9504U, 0x3e5b7fca3e2d58ecU,
  0xbe5cea9a3b9454f5U, 0xbbbdf30c3e3ebaabU, 0x3df191b0be72375aU, 0x3d5e1f3f3dfa4519U,
  0xbe3046a1bd1eb929U, 0x3e2a72383dcf717aU, 0x3ce38844be42f0efU, 0x3cf233493da93feaU,
  0xbdf07573be3a43d5U, 0x3d4c656b3d9da582U, 0x3dc03771bb7d0ab5U, 0x3db0364dbcc18e37U,
  0xbdf36baabe71b574U, 0x3e4ae5d73d5ff786U, 0x3da998c8be06ee22U, 0x3de891563d3b852dU,
  0xbdc8c0b93e1a7fb9U, 0x3e342ebc3e46aed5U, 0xbd7c610abe60a504U, 0x3e9152a73d101550U,
  0xbe28db15bdbee2a2U, 0x3d7a33a33e0b2fd2U, 0x3ddc1ad7be0bc1faU, 0x3e7f2bde3dc6a8efU,
  0xbe6edc8bbd3784bbU, 0x3e3f17413e60767fU, 0x3e9ec7a7be82f0cfU, 0x3e2a5c66bc99af82U,
  0xbe0ecee4be81f36cU, 0x3b8e41f03ddee55eU, 0x3c490cdabdb13493U, 0x3e2990d93e0ade91U,
  0xbc94db83be38febbU, 0x3dce57213dbb7537U, 0x3e732c3dbe2c9464U, 0x3ce6db3fbcc0e0d3U,
  0xbe8a2ee7be26de2cU, 0x3e8a9a323db1debfU, 0x3d0cec39be904beeU, 0xbcc633ca3d7e1e6eU,
  0xbd5c2df33d67fbe6U, 0x3d87f65cbc95eebcU, 0x3b878825be903ddeU, 0x3dba8bda3e544636U,
  0xbe984c8d3da8154fU, 0x3dd90a933d80e7d9U, 0x3e3ca2f7be236e3aU, 0x3e724f5fbc9f8a60U,
  0xbe2ed461bd207737U, 0xbcf208ab3c7565d4U, 0x3df6a096be8957a5U, 0x3e500ed13e2b6a5eU,
  0xbe27d5b3be14d4c3U, 0x3e0d02d53d585098U, 0x3e5c7f7ebe68d678U, 0x3ead51393e5f0b08U,
  0xbe290855bd9785b4U, 0x3e4db02f3e263699U, 0x3ce06132be41806dU, 0xbc0f5ffe3d637827U,
  0xbe8a9d0f3d823096U, 0x3cfe4a24bdf91aeaU, 0x3df37e303d230a3aU, 0x3c42872e3e48e107U,
  0xbe06d621bddae740U, 0x3e6ceae73df77ec5U, 0x3dd7548d3c0a9333U, 0x3d8ddf123e16210dU,
  0xbda573a1bd1fbb99U, 0x3c5769283c2af99fU, 0x3dee5b2bbe1742c2U, 0xbdc164c23daeedf5U,
  0xbe731f91bdfcc813U, 0x3e43a8003cef8e6eU, 0x3df7cb7ebc1ae37fU, 0x3df1a688bb9fd0eaU,
  0xbe1d2760bdd3979fU, 0xbdc6fd5c3d89e576U, 0x3d4a5d9abdd84c09U, 0x3e0d42a53e2cfd01U,
  0x3c922f723da16b94U, 0x3e445f893e3a87d9U, 0x3d352b31be2474a9U, 0x3ddf981fbd9cebe6U,
  0xbc9818033d6feeb3U, 0x3c6001d93e3bfcd2U, 0x3c6fa4b3be884f31U, 0x3c11571e3e015fdbU,
  0x3b758fe9be4e7476U, 0x3dde1c8a3e64cf99U, 0x3e20d201be26b2acU, 0x3e4c94bb3d161ba7U,
  0xbd0d595cbe1ac17eU, 0x3e29b35c3e00be95U, 0x3d9fefd13d1f08fdU, 0x3df69071bbbe3e97U,
  0xbd4376733cf23110U, 0x3d81f8673e0b412cU, 0x3e321efa3d360471U, 0x3e0ee8aa3ddbe2f6U,
  0xbd9d2e88be57c95aU, 0x3e1f821b3e4f9444U, 0xba2700aebd758cf0U, 0xbe0fd1cbbdbe4b20U,
  0xbcbb4e54be0072c6U, 0x3e56b7823cadecffU, 0x3d50f34b3d7e2a2eU, 0xbd636edfbd52477dU,
  0x3d36cb0b3debae81U, 0x3d83c915bd26344eU, 0x3e6fd08f3c48402bU, 0x3e527f593db82b72U,
  0xbe087bc1be3b5ac3U, 0xbc4580ffbdb1f7c0U, 0x3d845dc8bd5fe823U, 0x3e849267bdd27cbaU,
  0xbe61d6dc3db9ebafU, 0x3d8201b83e5d535cU, 0xbd8e1bfdbd9d078eU, 0x3e2827fd3dc14841U,
  0xbc8a13363da7f5b8U, 0x3df07c7f3e5539d9U, 0x3ce3c1e9bc921d87U, 0x3e5b2231bdf2b89eU,
  0xbe375425be656751U, 0xbae9d4583e2b2d9dU, 0x3e41e2e53c117aadU, 0x3e48c893bb7ededdU,
  0xbe00bcb0bd502907U, 0x3d802f383e267259U, 0x3e017931be48c8a3U, 0x3e035727bca09691U,
  0xbe5a589a3cc8eef4U, 0x3ddf439638f8a971U, 0x3e154d47be26ca96U, 0x3e0536c53ca7c6fbU,
  0xbd9108d63d9e8bb7U, 0xbd6037d3bdee744cU, 0x3df881913d25bd49U, 0x3d55b3763de57eccU,
  0xbe87cac9be0ed733U, 0x3dbda4f9bdff8fd6U, 0x3e8c7b39bdddee41U, 0x3d9105d53df29149U,
  0xbe034f243bfe21a2U, 0xbe2680d0bd6222e9U, 0xbe6851613db118d3U, 0x3d42e36cbdf6d9a1U,
  0xbd826bc0be2a6799U, 0x3d30677ebe3d5042U, 0xbd82fdc03e1eac67U, 0xbe469fefbcd2157eU,
  0x3d794897bcdb3896U, 0xbced20a8bcbba61dU, 0x3dc5f169bd6d809fU, 0xbd8d459e38aea39bU,
  0x3c14d733bca33358U, 0x3d32fd69bd33963aU, 0x3e0ff2973dc7ceb4U, 0xbd85d269bcd0f7faU,
  0xbd1e6cf83d925af5U, 0x3d8fc8cdbc4d86c9U, 0xb9e87c023e1360cfU, 0xbe0b7cac3d853e11U,
  0x3c9267903d9fc9f7U, 0xbe0e8db93da37f31U, 0x3d1b8ad8bb010f1bU, 0xbde2a208bd514e60U,
  0x3c96dc373e122a29U, 0x3aceacb63d05b024U, 0xbe2b4ad93cb7256bU, 0xbe06121cbd7e6954U,
  0xbd54793cbe0c0ba5U, 0xbdf813ad3ca162e0U, 0xbd417458be10f56fU, 0xbd84cc7a3d7e6ce3U,
  0xbde128cd3c92a67bU, 0xbdab83a33bc540ffU, 0xbdc962e3be4fd456U, 0xbe694d30be3e604bU,
  0xbca2fec43de472afU, 0xbdd1f7173dcd5b00U, 0xbe5db17fbd49d5bbU, 0xbdd1405c3d04b225U,
  0x3ddeab79bdf07425U, 0xbd6cbfa83d9cb903U, 0xbde0a1383d01105bU, 0x3c746fa23b371639U,
  0xbd410abcbd528461U, 0x3d68ce3d3d005f5bU, 0xbe20b04e3dd35017U, 0xbe0e2f47bd4c33c8U,
  0xbe38fb1f3c1a0ad9U, 0x3ddb0c4cbbd22415U, 0xbe0c5ccebd525b8bU, 0xbdfaac4e3d072996U,
  0x3d211a3a3cecb9c8U, 0xbac031483db497e5U, 0xbde2b5793e040f8cU, 0xbbde80853d57c413U,
  0xbe24e6a6be448544U, 0xbe0544a53ca0cf21U, 0xbe1ee759bd8c8551U, 0xbe0e5acfbddd862bU,
  0xbd1ef8383d92a84bU, 0xbc104e893d918fc0U, 0xbda2688e3ddb23b5U, 0x3bb14fc1bde5494fU,
  0xbcb7848e3d693da1U, 0x3e34f34bbda2aae6U, 0xbdbf19f7be1b3461U, 0x3dc8d2afbdd67173U,
  0xbcc671bb3da622e9U, 0xbdfd22e8be201123U, 0xbc990909bdd40dd1U, 0xbd4160fcbe03c650U,
  0x3b3119b6be13dfedU, 0xbe183066bdb942d7U, 0x3d8452c63d3dc138U, 0x3d183c7e3ce90524U,
  0xbdba688dbd95a8abU, 0xbdebe4d9bce42824U, 0xbe357f12bdb1ee94U, 0xbdefdbfcbe1735c0U,
  0x3bf89cbbbc6f3009U, 0x3b90e32d3d7eee00U, 0xbe512a2cbc8be6a9U, 0xbe39b52ebe2296fdU,
  0x3dfa77283e2e49f1U, 0xbd627259be284f9eU, 0xbcd846c5bdb560a5U, 0xbd5c4078be33a5d9U,
  0x3e91898abd467f51U, 0xbe812f7bbdafbc0aU, 0x3cde37e43ddb91fcU, 0xbdad41bfbdc0b50aU,
  0x3dad82763d345c71U, 0xbe007ccc3d7fc07cU, 0xbda1e6523e091bdaU, 0x38a732b83d5216ffU,
  0x3d13c5f4bb98f73dU, 0x3c5b90d8bdf19f2aU, 0xba476dd43e4c1576U, 0x3d840582bd69a8c0U,
  0x3e600fc5bd83a6b3U, 0xbe2327703dd42143U, 0xbd1604013d85924dU, 0x3dda00f33e445e78U,
  0x3e8354533ddfd5a6U, 0xbd81d2e83e5a27d5U, 0x3e02adf83e8630a2U, 0xbdaba5873e4a40cfU,
  0x3e7c32ea3e1b35d0U, 0xbdfa97b4bc03a7f8U, 0x3e0666a03de19ed8U, 0xbda08c07b9c9e8cdU,
  0x3e49fad4bcba8c27U, 0xbcaba84fbc5df640U, 0x3afee0d03e46592fU, 0xbe15b36d3ddc4995U,
  0x3e722b643e37d7f7U, 0xbce07fbd3d033faaU, 0xbd61600a3e1d524fU, 0x3ddc5a573d72e630U,
  0x3e1233cc3e136456U, 0x3df330c23d3be342U, 0xbe9033f63e2ab783U, 0xbe3bcba03dae2188U,
  0x3dbcace63e2b95bcU, 0x3dfa1cf13db53bc8U, 0xbd79fb0f3d8d2a15U, 0xbdc87d3ebcb28001U,
  0xbc419eed3e058e5fU, 0xbc8dfe46bc8183e5U, 0xbdc7f4f23e6e01ecU, 0xbd07c7b93cd16224U,
  0xbcb807aa3e20a6e4U, 0x3c61e87b3e2451dfU, 0x3cd1943bbcf270daU, 0x3e816a2b3e30b8e8U,
  0x3e440983bdd30bbfU, 0xbe1f42aabd841084U, 0x3e1432d23e4d6062U, 0x3da294fc3dcf2b05U,
  0x3e804bfdbd82be1bU, 0xbe05e17dbdf45f1cU, 0xbc85fc503d79113eU, 0xbe586fdbbd97605fU,
  0x3e50e34ebd8b5722U, 0x3db1a097bde1b5faU, 0xbda3e0c1bbb45d65U, 0xbdf37f75bd75bec6U,
  0x3e44c0f5bd0ec0abU, 0x3d99c81f3e2409f0U, 0xbddb33d63d5ebc51U, 0x3d73c1213e45b79eU,
  0x3e830d4c3e0277e6U, 0xbe567098bdd0be46U, 0xbaa54f70bbe726bfU, 0xbd92f49e3e591592U,
  0x3b911e1e3e27db35U, 0xbd577812bc4b024bU, 0x3d21fbcd3e67fb87U, 0xbc2fe068bc9a1064U,
  0x3e4bba163d7a1c82U, 0x3deacc113e28b06fU, 0xbdea88443d9f458fU, 0x3c2319dc3e532089U,
  0x3dba1d453cfa9562U, 0x3e06aa943d5f8511U, 0xbd6f7bc53dbe1e25U, 0xbd565a5e3d8de27bU,
  0x3e46b16f3e81a0c0U, 0xbe0fdf2f3d723172U, 0xbd9accea3e99940cU, 0xbd5c21203b7e1ddaU,
  0x3e80fcc33e79185fU, 0xbdc3402fbe8a5573U, 0xbe91addb3de1cfe2U, 0xbea1fa6fbd4eeb19U,
  0xbe5de13ebb506775U, 0x3db3d0313e2d2280U, 0x3e03bb17bb18bacbU, 0x3e2f74213e8d4eb7U,
  0xbe0a886fbe35d370U, 0x3d432a263e49981eU, 0x3ddce732bd87a939U, 0x3d4eb5613e3b6303U,
  0x3d046b93be41af36U, 0x3d8539b43d0c083bU, 0x3d973a6cbd8c99caU, 0x3e2e68443d815434U,
  0xbda11436bd1d7f2fU, 0x3cff92a93c371297U, 0x3e59467fbe11b1d6U, 0x3e06a76f3d85d530U,
  0xbe82263dbe3d1ff9U, 0x3df5fc433ddbcc78U, 0x3ce78050be59dcc0U, 0xbdae32e9bd6ffb33U,
  0xbe9309a73e119e26U, 0x3e3990b9bb82cc0aU, 0xbd6762d5be85b3faU, 0x3e2f22efbd33e0b2U,
  0xbc95e3773db2f4d1U, 0xbca721ee3e5d2b1aU, 0x3d9ff46dbe4eb26eU, 0xbcb7048b3e301b7bU,
  0x3d9c9eddbe137a96U, 0x3e2b78313e4f14b5U, 0x3e99afb1be3b4702U, 0x3dec11dc3e0b011cU,
  0xbe0908323d802ff1U, 0xbd4957c13e1e0445U, 0x3e25333cbdccf518U, 0x3e0a39b03d0c6429U,
  0x3d0c0301bde03f13U, 0x3e0af09a3e13a95fU, 0x3e062a9bbe0e8d64U, 0x3e137e893c085975U,
  0xbe3cae923d0b1ec4U, 0x3e3c3dd93e37eadbU, 0x3d8dace9be3eed45U, 0x3dcd197e3df45f3cU,
  0xbe1b36bfbe62cafdU, 0x3d89f1483db770a5U, 0x3d912106be6a10c0U, 0xbe23acaabca333ffU,
  0xbe16d18fbe0a1b8dU, 0x3dbe274a3e19cb44U, 0x3bcf76a3bdc12612U, 0xbcb56d0f3dad27c8U,
  0xbbb2befebe190ee6U, 0x3b98c92c3de638d1U, 0x3e656f29bd8863a1U, 0x3e9df0413d419822U,
  0xbe3e04343d90ef19U, 0xbd0333513dac2015U, 0x3e8a78793c0d878cU, 0xbc514664bdae3818U,
  0xbd722e82be0bc246U, 0xbd343adf39ff5724U, 0x3dde69d6be2b1699U, 0x3b3d778a3dddc5c4U,
  0xbdef7ca9bd88b5caU, 0x3e28449a3e014770U, 0x3e5ff4f6bd8dc938U, 0x3d2134e83e20dfc9U,
  0x3d883ba73c3caba8U, 0x3e4df7b33d6605d3U, 0xbd593613be2730d7U, 0x3dec1ece3e1b2905U,
  0x3ce124713e1968a9U, 0x3d2735993e2f80a6U, 0x3e38aa2dbe5eb0ddU, 0xbcff014e3dc382d5U,
  0x3c61b9e43e171258U, 0x3d34ebdfbd93d370U, 0x3db9d5e1be59128eU, 0x3e01cf7d3e1350adU,
  0xbe297d42be21f4c3U, 0x3e0e5ab43d9d1e3fU, 0x3da5558f3d15daa7U, 0x3dcd01ba3d08bef7U,
  0xbe497becbd4cd9a1U, 0xbda9df01bd9ce27fU, 0x3d537ed1bd476327U, 0x3e8ea503bd40bea4U,
  0x3da442053d1a857bU, 0x3f0acc9e3ea7be81U, 0x3eb17b783b0f06cbU, 0x3ea0130e3e5e2a34U,
  0x3d13a25a3df92d92U, 0x3ee93e363ddca7e9U, 0x3defd0fabbffb732U, 0x3d480935bd895e33U,
  0x3cd2acc43e3f128eU, 0x3e81510d3e3dbaceU, 0x3e167ac93d92cd54U, 0x3aa7d2ca3db7ab19U,
  0x3e090d133c8ea54eU, 0x3e82c00e3e27b322U, 0x3e01f5bb3d542f8fU, 0x3eb357643e01cd8dU,
  0xbdb0ff613e46d7f4U, 0x3e320d5c3d8dfd6eU, 0x3e857c223e0df8fcU, 0x3e8e5926bcce9603U,
  0x3cbb24d93e4505faU, 0x3e83efffbd6423a9U, 0x3d0416353c647c31U, 0x3ebce825bc371c3bU,
  0xbd0bd3953e00cb34U, 0x3e52a4d33e3b08a7U, 0x3d0fb8a13e117513U, 0x3cecf649bdae8d1aU,
  0xbcc617a53d3051edU, 0x3e1b9efabcd6afa6U, 0x3e5832e33bc46898U, 0x3d4500253dccc02cU,
  0xbd7a657e3e394735U, 0x3e913f7d3e2c163aU, 0x3ef3af6d3e06feaaU, 0x3ebd00ec3e102181U,
  0x3e25f51e3ced6dd7U, 0x3e8b58fa3e40acc2U, 0x3e36429fbdbe44c2U, 0x3ed872923e09e30eU,
  0xbd8c45e83e28e005U, 0x3ebafe663e18e168U, 0x3e7ea2803dab1583U, 0x3e6df8c93d8041f3U,
  0xbcf9b8bfbcbc9b87U, 0x3e2c49cf3e250b32U, 0x3e3895f43d65d64eU, 0x3cc4cb353df4a064U,
  0xbe0187763e859c0fU, 0x3e6874d03e91a634U, 0x3e706855bbb83137U, 0x3e1e5375bd609f50U,
  0x3d8ebeaa3da6caa5U, 0x3eb9895e3e7003c3U, 0x3cdafb0d3e1cf641U, 0x3e2051643ca972fdU,
  0x3d997ecc3e96b567U, 0x3ea78f8d3e50d183U, 0x3dfdf6dcbc9de983U, 0x3e3129d53c7a2ec9U,
  0x3d911ee73e1f3d4eU, 0x3eb5cfb03ddb6ee8U, 0x3e319f103d5b12e1U, 0x3e891fa23dd85602U,
  0xbd9d0cf73ca8dc56U, 0x3e39822b3e4e4e72U, 0x3e9c39a63e3e5d0cU, 0x3dade1e0bdf56cffU,
  0xbc3e95d33e16e21dU, 0x3e46f18b3c1c3647U, 0x3c37b0e53d86f3deU, 0x3eb4ccb6bca27fa3U,
  0xbd311224bdca06f4U, 0x3e6f799f3e8ded8eU, 0x3eb65b423daae78cU, 0x3dd7f1073d2608b3U,
  0x3c9db661bd62e9bcU, 0x3ea346fd3e470b1eU, 0x3eb22685bd589c29U, 0x3e9c82463d388819U,
  0x3dad971f3e5913d2U, 0x3e82e2e13ddc7819U, 0x3eaeb3c93b3eea6aU, 0x3edbde4f3e27c1f0U,
  0xb9db6cc73d523882U, 0x3e8b2aaabdba3944U, 0x3f05b2ca3e0ccbd2U, 0x3ea98d6fbd4da4f9U,
  0xbe228851bd994b1bU, 0x3eb422c13e5bfa63U, 0x3e7fac55be6a7910U, 0x3e21e8fe3e148585U,
  0xbe8738a7be37ca81U, 0x3e5154db3e4c50a0U, 0x3e213201bda5d3aeU, 0x3e28acc93dc6e76cU,
  0xbbc80ce13d557b26U, 0x3d87dd933e78cd92U, 0x3d80a3d1be2ffc32U, 0x3cf064bfbc61d5f1U,
  0xbe51c5e9be10de52U, 0xbd01421a3e43cd25U, 0xbd886b74be554026U, 0x3e6f10e93de63d94U,
  0xbe03c2f93d981a85U, 0x3deea7ba3cb980ceU, 0x3dcfbc8dbe050cf7U, 0x3dee6e883c44ce51U,
  0xbe845fa5bc931fffU, 0x3d3a718f3e69ba1dU, 0x3e50ab6fbe8d0ee7U, 0x3e69fe793def30d1U,
  0xbe41623b3c767255U, 0x3e01cb5e3dba6b5eU, 0x3d9e10dabe1fe4ebU, 0x3c89e3973cee90baU,
  0xbe9720c5bdf50b33U, 0x3e42ccbb3dc87acdU, 0x3dbb46dfbe3c3a8fU, 0x3ce7b3433e14e281U,
  0xbe3fe7babe0c3f78U, 0x3e28c7263dc69d6cU, 0x3ea8d6d3be0fc74dU, 0x3dc0cb5c3e43fa64U,
  0xbe6be032bdf9a3c2U, 0x3d923ab4bcf8e9fbU, 0x3df5f7c4be2df174U, 0x3d96fab23e1efecfU,
  0xbe70071dbe588fd7U, 0x3e375fde3d962f9bU, 0x3e2f3580be1b6458U, 0x3e769d773e082103U,
  0xbc806a64bd38c710U, 0x3e24fae83dda5caaU, 0x3e27beb5bc846e1bU, 0x3e2a18023e56b5abU,
  0xbe4faf46bdd5dd74U, 0x3e5b6804bd2a301aU, 0x3e01bce0bda14ddbU, 0x3d8b6f2dbd0bb242U,
